42
bc
2b
98
c0
92
02
d8
bf
c9
d4
43
b9
18
aa
e6
71
db
aa
3d
99
e2
19
3a
a8
39
a8
bf
58
29
a8
6e
7e
5c
d0
e6
3a
37
08
8a
ea
25
4c
b7
2e
09
f7
ae
17
07
67
c1
93
35
2a
70
46
02
92
e0
58
1b
f9
d7
af
58
83
db
67
60
10
7b
b4
93
8d
0f
9e
58
e2
73
82
87
44
c2
75
53
fc
01
fc
62
2d
43
89
a0
c5
d1
95
1c
52
34
2b
1a
80
5c
c2
26
14
ba
06
e2
f1
a2
8c
e2
dc
b0
1c
5a
8e
77
f6
aa
ff
e4
91
ed
df
8f
d4
7b
69
96
28
27
4f
db
57
09
4f
18
49
1d
6f
55
aa
fb
57
8e
0c
2f
92
62
f8
b3
94
d4
34
83
ea
a3
32
97
ae
d6
12
df
c7
fd
21
aa
df
5f
17
65
e6
5c
e3
e7
58
2d
f6
b9
51
43
a5
cb
0f
b7
6e
ca
2f
b3
53
97
ab
0c
8d
34
a9
8a
10
69
fc
c3
25
a8
cd
f3
b5
87
c7
64
5d
72
15
65
5a
1b
69
b1
72
33
7b
91
1f
b7
ab
ed
c3
78
1e
15
42
07
73
d6
31
fd
54
f1
b1
94
ce
e2
1c
ee
5a
09
d6
06
fd
b9
9a
b8
64
94
10
a0
35
9f
58
f8
5c
4f
f2
cc
ce
45
0d
0f
82
34
e5
70
52
21
e9
a7
1c
98
86
c2
1a
0e
4e
64
a5
1e
f7
f4
52
43
6e
d9
92
d7
56
6c
2e
2a
a4
48
8c
24
1a
97
18
f1
b0
0c
c7
18
87
17
1e
ae
e6
2b
81
10
dd
74
bb
b9
0b
99
30
ac
39
c7
61
72
81
a0
86
1c
ad
db
1d
e9
9e
69
95
49
76
e0
c4
ec
ef
10
0d
c1
4d
26
ea
c9
56
12
e9
97
5a
f3
ef
72
6a
94
70
55
22
51
34
ed
e5
92
a3
b2
34
e3
e3
fd
6b
85
69
80
32
af
fb
5b
19
3d
d7
c9
06
a5
ac
c6
69
ee
b5
80
bc
8b
d1
23
d4
87
cb
bd
a4
56
4e
6c
ae
83
be
45
ef
aa
bf
34
5f
80
53
03
30
92
77
86
fa
e6
4f
2e
c7
76
36
e4
93
cb
dd
45
1a
e1
3c
25
cb
e3
2c
f4
24
3a
87
d4
0f
4f
4f
a4
d4
1d
27
55
2a
71
72
57
18
65
bb
54
01
49
24
65
bb
39
93
62
b8
fa
7d
e6
75
2f
88
4a
f9
09
de
17
53
b2
ae
81
10
fa
aa
55
46
85
98
64
90
e1
0f
e5
29
1a
00
9b
1d
5c
05
f8
3d
41
3c
7d
73
25
a8
07
94
97
38
07
85
75
70
d9
c5
5f
e1
b6
ef
e0
86
bc
fb
e7
8e
2b
5b
5b
bd
b0
de
ae
30
34
dc
43
cf
d1
01
3d
d4
c8
6e
9a
8a
b1
43
8e
75
f7
3e
80
23
f4
9f
9a
6c
d8
93
2b
15
a0
99
39
30
38
32
5f
76
93
de
c7
52
91
c9
55
38
c4
e8
fd
14
8c
a5
a6
af
d1
23
8f
0f
54
7a
3f
9b
87
02
74
fc
90
bb
51
f5
e7
dc
5f
97
67
42
e1
5a
c3
59
1c
fc
1f
15
83
5e
4f
57
c6
f0
b7
0c
54
c3
1f
c0
8e
81
bf
60
ff
ef
37
df
ed
5b
4d
96
66
95
81
2c
28
91
e3
08
3d
44
d2
5e
9e
7f
c6
66
05
67
80
9c
36
c6
b9
bf
54
ee
d9
98
dd
61
eb
ed
85
dc
d0
b7
5d
57
7b
31
af
48
d4
2d
58
04
31
45
e3
46
08
a1
01
cf
e0
85
f0
a6
85
03
de
cf
a8
fb
27
71
b1
8a
ba
cb
62
51
4a
bc
93
49
37
92
38
11
08
82
83
70
05
5a
51
5f
b7
16
3c
58
d2
87
9f
84
89
f6
55
da
94
f2
92
4e
14
28
8e
14
51
99
d3
a9
32
69
2b
58
fa
3f
d9
9a
2d
ae
5d
c9
c7
db
ba
a8
8c
3f
7c
e9
6d
2e
85
a8
dd
2b
e8
94
0f
14
dc
f2
6d
56
aa
02
2a
2c
63
8c
4a
dc
47
06
a6
f3
24
d2
b7
32
05
7f
d1
7f
96
7a
c7
e5
59
da
36
ad
e2
5c
f7
0d
3f
f9
e6
2a
27
a5
8f
bc
3a
a5
d5
ba
d5
48
00
67
e8
43
21
31
f0
6d
25
26
50
7f
38
23
d4
b4
d7
be
a9
a1
c3
fd
97
7d
e3
fe
e2
de
f6
b6
62
96
9c
1b
08
12
08
a7
16
1b
22
52
24
11
f5
b9
05
f6
a1
f6
e7
84
d4
94
6f
a8
fa
89
c9
29
6e
96
a3
1d
7e
6a
c2
1e
a3
40
d8
28
18
45
84
1f
27
3e
67
5d
da
8b
ff
8b
5b
03
34
3b
86
24
0d
40
23
06
d5
13
9f
5c
c3
0e
c5
5d
b8
52
e8
fc
5a
45
8b
ac
07
f1
25
1b
91
d0
d7
b2
53
32
bb
d3
15
f5
85
11
23
ed
c3
e9
df
6e
a8
95
44
e9
b2
c5
89
a9
f6
52
b3
dc
35
ea
9f
92
d3
15
4f
8e
57
a5
3e
86
d3
ca
48
86
e4
62
20
88
98
19
5b
c4
29
34
07
c2
88
69
8b
e5
71
f3
4f
54
a6
d9
92
6f
2e
10
04
1d
2e
8b
ed
6a
8a
43
39
9d
f7
6b
d7
1a
3a
0d
2c
ef
0f
77
53
99
da
d7
80
7c
29
7d
cf
52
9a
d5
85
ff
f2
b6
55
b1
21
07
27
9d
ec
e7
3f
c7
0a
b5
9a
19
a4
d3
cf
94
32
40
2e
b9
fd
4d
51
bf
c8
12
ce
11
99
6a
8a
c4
a5
ab
da
e3
46
a5
07
8d
a1
24
0e
29
7f
96
da
e9
4c
c4
e4
76
5b
b4
79
71
27
89
10
00
c9
80
7d
20
7f
23
ce
15
12
9b
ca
f9
a1
23
d8
ce
6b
62
b1
c5
1c
40
75
7b
b2
76
de
29
62
b8
2d
d2
5d
a0
43
10
0d
92
ec
7d
d4
ea
2c
c6
d7
ee
60
e0
fb
f6
7a
a0
ee
0b
e4
f2
92
ea
46
74
86
3f
5c
7a
42
8a
9e
6e
ba
c5
2b
75
77
32
c6
cd
a1
d7
fb
a1
8e
4f
a0
b9
a8
2e
60
b1
af
69
8c
8b
4e
23
93
99
bd
9b
ac
87
21
2b
49
4d
2f
2c
69
ba
20
a6
97
f8
9d
43
53
71
c6
84
f0
77
d3
2f
25
09
b8
03
0b
6f
01
58
be
f9
86
b0
87
74
85
28
bf
0b
13
75
7d
4f
d3
4d
df
e3
7b
ac
0c
55
d1
bc
0d
a2
36
33
34
82
7f
15
38
6f
ae
75
d5
08
aa
31
59
96
06
72
a8
73
d5
df
66
c9
87
ef
b2
99
3d
67
cc
f7
2d
cf
5f
97
eb
b4
1b
cb
f4
a6
2f
28
6c
f3
59
12
d7
d3
ea
3a
36
06
a0
b1
ad
5c
4c
63
bc
90
fc
f0
1f
11
8b
06
39
0a
e8
e2
e9
3f
be
a8
9c
95
66
dc
34
58
80
68
29
42
d5
8b
79
2f
cc
81
45
ee
c0
3d
cc
2b
6b
d1
b6
30
c5
0e
89
af
23
42
10
47
ce
4d
fe
b8
fb
e1
61
56
a4
8e
a8
3e
9d
52
ba
da
b6
d6
5e
a9
e4
da
42
97
c3
e8
d5
39
e5
06
c4
0f
95
c5
b8
c8
29
11
4b
13
a7
c2
b7
a6
f9
c8
0a
a7
45
c7
93
53
ca
02
52
6d
cc
36
df
63
9a
1c
c7
79
b2
59
80
94
0c
22
36
fa
c7
4d
c8
ae
55
35
bb
c8
14
9e
82
fd
0b
3c
3d
5a
32
5b
52
43
56
df
77
56
ef
c3
53
82
70
ff
77
46
ca
72
08
e1
16
5f
41
29
13
e6
bf
81
7b
d9
48
02
65
38
1d
d5
c9
04
84
02
9e
3d
09
b7
ef
b2
94
64
ee
c3
29
c6
ed
86
fc
6f
e7
50
64
43
67
03
f8
42
8f
50
87
7f
c7
00
35
3a
a2
7d
f5
0e
72
23
a8
8b
f3
a8
02
e9
ea
62
f0
d8
61
5b
d2
37
d9
b1
e8
8a
7f
a7
d3
da
86
75
93
25
e9
2b
81
b8
40
16
f8
21
5c
57
bc
b8
67
2d
c7
7e
76
88
e8
55
57
da
55
3c
2b
37
59
e3
3d
f5
48
88
fb
17
8a
48
f2
3a
14
ce
06
53
ec
d2
58
52
2f
cf
ee
f4
50
7b
93
84
93
ef
16
65
74
6c
a0
81
04
9a
5a
25
47
aa
0f
75
5a
48
a8
92
2b
78
30
7f
dd
d5
48
46
2e
a2
45
f6
62
32
9b
48
63
d8
18
ef
76
38
81
5f
05
58
71
e4
fb
f0
67
56
00
1c
a1
ec
30
95
64
d2
ab
e9
88
c8
b4
5e
fb
fc
63
36
db
75
4d
aa
18
f0
e6
55
9b
ec
b5
d5
07
3c
1c
8d
74
6c
90
44
9c
e8
5e
f9
1e
37
e9
a8
32
3d
2f
f5
da
43
53
65
20
46
51
cb
27
57
38
56
e5
8b
71
2d
bd
82
c8
c0
dd
3e
7b
52
b8
60
59
a6
8a
9b
c3
d2
50
4f
7b
70
b8
1c
80
08
9d
3b
4c
4e
f2
06
c0
55
30
2e
0b
9b
ea
13
ff
7f
2c
78
9e
43
32
4e
a3
17
44
e8
25
32
13
5d
79
c7
0f
cd
a7
43
dd
a3
2e
92
80
58
d0
e9
25
09
e3
da
3b
ad
32
a7
8c
b5
69
4a
b8
2f
47
39
7e
fc
23
5e
35
a8
86
55
e3
e6
8c
d8
54
b1
6c
b8
1a
e1
26
d1
f4
b8
d3
77
d9
c7
a5
65
6b
b9
8d
86
24
d4
50
f9
34
6b
34
ec
ff
15
b8
f1
7c
a1
70
10
d2
1f
d7
67
6e
4e
d4
24
ef
c3
b6
6d
48
4c
4a
bc
6a
43
17
80
bb
b7
3f
65
8e
bf
45
5b
7d
58
16
21
da
ac
73
76
9e
5d
d4
ab
bf
a3
42
db
40
20
1a
d8
84
98
d4
a1
30
8f
4d
03
63
2a
3b
94
1c
b1
a3
89
3f
2b
8e
d1
c8
dd
35
ac
85
c0
d9
de
b9
0c
b4
85
28
9a
a1
ab
d9
82
d0
f8
aa
ed
9b
6c
f6
03
f9
15
06
59
3a
61
25
96
bb
45
4b
af
87
e5
87
0a
f1
69
34
42
ef
e6
95
7a
07
87
9b
e8
2a
bd
8b
24
14
af
31
1b
b4
b7
b1
59
6a
53
35
c6
09
4a
e0
82
e0
52
58
61
82
f2
9a
e9
f3
25
c2
61
f1
d2
06
f2
05
08
c5
18
26
b3
f0
1a
7a
0b
cb
96
c3
0a
7c
c3
d5
f1
97
a7
49
f0
62
86
79
58
33
37
80
cc
30
18
67
ea
e7
3e
af
c9
62
5e
b7
30
e7
d8
4a
26
a8
b7
74
7d
cc
1b
b0
c2
21
64
f0
27
f2
e1
6f
d2
d6
16
67
22
94
b2
d1
00
b0
cc
85
42
f2
2a
68
43
68
d9
e0
ad
57
8b
fc
d0
83
73
5e
b0
1d
f8
93
e5
aa
71
fd
48
fd
28
67
3e
fd
39
03
95
a4
c9
e8
2d
53
d6
71
0b
41
e9
de
d9
29
73
e8
69
3a
71
c6
9c
e2
af
ea
b3
fc
94
d0
c8
87
91
d7
5f
96
9a
4c
67
4f
ed
16
a2
cc
72
c4
cc
c7
ca
11
0f
52
b4
7f
bc
19
3c
67
a2
2e
38
f1
16
87
40
ae
d5
fe
81
7b
f6
7b
60
37
ee
a5
5a
db
45
2c
cb
ed
17
90
bc
cd
71
67
8b
4f
a8
73
29
d4
32
57
5a
31
82
c7
f8
5d
37
49
d8
ed
22
1b
6a
a5
eb
76
c1
98
f1
b5
77
ec
65
9e
00
81
3b
2e
00
52
b0
17
84
8c
5f
26
7e
61
10
0b
4d
fd
e9
b4
de
7c
b2
d2
33
63
3d
07
b8
40
76
4c
42
c4
d2
f1
84
a4
02
66
7f
80
7a
f6
80
c9
4c
ab
e7
1f
d4
5b
15
61
be
db
ea
2e
4f
ba
9b
2a
63
19
f7
65
16
0b
8b
a2
24
59
d6
c1
4f
44
87
cd
ea
d3
17
97
9d
fd
35
1c
25
c9
c5
f3
19
72
6b
75
d0
46
f3
08
23
7b
16
e1
00
5c
bb
84
99
f4
95
b1
9d
53
d0
1e
8f
71
36
34
3f
51
1e
87
6c
61
f2
31
be
e1
7a
74
d9
03
b8
f6
a5
2f
ee
cc
fe
ab
f1
6e
79
04
b1
90
dd
f8
fc
d1
65
0b
4a
18
5c
01
f0
33
2b
53
3b
99
7f
5d
5f
19
6b
66
57
a4
1b
29
6d
ed
62
be
ef
ef
85
0b
43
cd
d7
6b
a1
af
e8
e4
61
71
67
91
3f
f0
c4
6d
1c
16
1b
f7
d1
60
54
bd
85
67
cd
12
82
28
07
d1
48
fb
96
62
2c
7c
c0
ac
a0
5a
a1
26
02
f9
ae
0e
0a
07
ec
ca
9c
81
c9
3b
d3
10
41
3d
42
6c
85
19
ef
84
a5
bc
78
97
53
e4
1f
e4
ee
76
92
d0
c5
db
99
9d
98
50
fc
bd
5c
52
7d
e6
f2
d0
d1
19
54
ab
54
79
70
c1
59
16
1b
38
2e
4c
72
6b
a8
36
10
09
d8
17
86
f5
a1
1a
70
36
d6
ff
e0
7e
f3
21
90
0d
f4
8e
8f
df
25
13
92
59
91
e1
d0
6f
dc
66
77
a7
cf
5c
bc
e4
df
75
28
87
2e
1f
d3
90
e8
47
41
2f
66
9a
2f
1c
38
c6
e0
3b
c5
27
d6
7b
50
ad
90
fe
31
2d
a4
db
74
55
3e
85
43
c2
e3
b2
82
f3
aa
20
21
fe
60
20
6b
77
a3
39
bc
66
23
c3
74
4f
44
07
32
56
19
6d
50
b8
dd
ea
08
8e
7a
c7
09
5d
0c
ec
81
4a
05
46
d3
b1
59
dd
43
a2
c9
62
99
3e
7b
c9
0e
f7
6d
af
7b
60
c3
50
b3
fa
51
7a
50
54
73
fc
cc
17
52
b6
9e
6a
95
39
55
11
37
00
49
ac
ec
31
81
28
ca
d5
3b
d2
cb
3b
6c
c4
2a
05
a4
79
9d
12
cd
b6
3d
9a
9d
c8
ea
ba
52
2b
5f
ea
5f
b9
05
d4
4d
76
de
5d
c0
4a
8f
0c
81
2c
d0
40
f3
4e
35
7e
9b
66
2d
b0
5d
19
11
f6
fc
56
da
60
9b
f3
d9
9d
ba
60
e0
60
5f
79
97
9c
0d
51
e2
dd
2f
98
ab
ea
74
3a
62
91
fe
b1
28
4c
f1
62
38
9e
33
68
1e
f2
95
32
fb
ca
52
ba
50
86
2f
76
b9
74
6f
0e
fe
ac
75
e2
6f
e7
b2
64
ef
f0
86
93
06
c5
b2
e5
8d
c6
ff
b4
cc
b7
95
b3
35
10
ad
8b
33
54
dd
0e
94
48
5e
31
e4
6d
34
23
49
d1
4a
3d
2f
65
f8
a1
a4
5f
e7
ac
c9
29
43
07
67
34
3b
d5
5f
81
e7
19
9b
5f
50
d4
f1
67
03
e6
ee
96
d2
dc
94
a2
fb
3e
a9
bc
48
ae
e4
58
2b
fc
80
47
a7
17
c1
aa
4c
6c
2e
81
d8
94
b1
c6
9b
d0
b4
62
9c
dc
b0
d7
4e
df
7f
c9
f5
7b
8c
0c
6c
60
48
b2
85
0b
98
7b
d0
42
87
f3
f4
f2
4e
5c
ed
89
0e
da
55
a9
46
34
26
f5
0c
42
72
1a
16
39
a0
26
4a
93
0a
cc
3b
dd
18
c0
c7
e8
8c
2f
ef
0c
08
92
ea
81
5a
80
25
a1
f4
29
8c
0f
70
81
2f
d4
34
72
d1
c2
e1
1a
ad
6d
1f
e4
de
43
05
a3
51
84
48
dd
e1
82
d4
71
92
2b
6c
77
d6
7f
a0
57
be
5e
32
db
24
de
36
6d
0e
17
ac
2c
36
f1
26
e0
11
83
39
17
b3
9c
43
cb
cf
3e
0e
61
c2
c8
1a
87
f0
b0
de
a4
e4
1f
d9
d3
85
04
bb
fe
ee
0e
2e
1f
1f
f3
7e
dc
a9
cd
ec
ea
b9
c1
9b
b7
40
d1
89
64
1e
bb
d6
67
52
b0
ed
23
14
af
9e
4f
35
f1
fd
d3
56
e4
35
f4
cd
3b
33
e8
a0
1a
f2
55
84
f7
cf
8c
59
76
a9
b9
89
23
91
fe
69
2d
1c
f0
1a
ec
71
00
50
b9
eb
3e
1f
3e
ef
64
25
d7
2c
d5
08
19
15
93
b6
9e
cf
c2
94
a0
c0
e4
c2
05
3c
36
f9
8d
23
61
fa
dd
81
89
39
86
91
b2
80
40
dd
1f
23
56
b3
22
1a
a7
35
91
c3
a3
4c
96
88
12
8d
f9
91
52
0f
c6
84
20
6b
0a
17
b7
24
e8
31
60
46
0f
50
b4
07
43
23
69
00
1f
c5
2f
4d
56
6f
55
28
de
82
26
5c
52
a1
f1
ef
9f
93
3d
c7
26
36
59
3a
1d
59
eb
18
60
53
5f
d0
ed
9d
c7
0c
db
01
a7
23
b7
32
fa
ef
8a
9c
91
0f
0c
92
77
c7
30
89
c6
7b
0d
40
b5
97
fa
9e
af
cd
5b
7c
a7
1d
71
70
e9
c5
15
98
d7
eb
7b
e7
0c
3b
94
fb
4c
c8
46
d2
78
19
1e
24
bf
29
cd
ed
3a
b3
48
e4
0d
89
6d
e8
f4
be
cf
6c
4d
7a
c0
f9
b2
01
5f
cb
cf
fe
4f
1e
ce
10
e0
a8
06
b1
3a
4f
ee
2f
fc
03
e1
20
84
c2
a4
47
70
4a
b7
dc
07
1f
ff
c7
88
0e
ba
ce
73
24
27
40
66
7b
36
56
5d
f2
87
94
29
fa
c9
8b
55
58
b6
9d
17
1f
0a
48
ef
47
bb
90
f4
7c
c5
e8
20
4d
4f
c5
c0
a4
08
fe
78
06
9b
58
f0
52
c1
a3
1c
ae
67
4b
d5
31
94
6f
ac
89
da
31
43
59
b8
3f
af
1a
65
99
e2
77
3e
2f
53
bd
28
62
10
7e
57
52
25
b2
15
ad
bf
d2
54
6c
52
0a
26
11
43
db
3f
be
6f
88
f2
97
96
aa
56
51
a8
45
73
b4
fe
21
10
87
3d
97
ea
61
28
46
d3
3d
a6
35
45
1c
cc
52
dd
9f
2f
21
fc
42
f0
62
37
2d
97
a4
97
04
e6
ca
af
af
f2
0f
ec
87
1a
44
1c
3b
8e
c3
10
3d
f2
6d
ea
30
10
31
a5
e4
56
7d
5a
45
ef
95
f4
34
bd
6b
9d
a4
12
4e
38
cb
95
f7
a8
ed
23
cd
a5
8c
13
2d
92
ad
e0
81
35
21
ec
2d
52
33
31
7d
fc
c2
a6
02
27
34
a0
70
23
41
14
32
b0
d0
35
1a
c6
9c
18
02
89
7a
b1
50
41
0a
41
80
6f
a9
89
45
d6
84
63
a8
4b
89
21
9e
1f
2b
7b
4b
f4
94
c4
06
96
f5
4a
98
e7
2e
32
b2
de
f0
bb
4b
c1
93
95
dd
21
9c
31
a9
8e
6e
ff
be
39
18
31
9f
a3
39
f9
7b
ca
a6
44
4f
1c
ea
db
64
4c
09
7b
01
82
d8
af
d2
d8
d9
a2
df
ec
19
a0
f9
40
2b
72
31
72
41
7d
78
bc
f3
b7
a4
e1
c2
bc
2c
68
31
ad
1e
63
dc
2d
60
e8
ea
82
6d
38
56
ba
77
46
be
d0
14
5a
3c
c6
e4
06
00
e3
9e
8e
4c
20
de
9b
6b
a5
19
c5
27
79
f4
55
26
d4
d3
db
c3
ea
40
8e
e8
b1
f2
b0
d9
68
37
ef
6a
b9
5d
ef
0f
21
b8
37
6f
56
80
37
05
37
7f
da
6f
a6
0d
8f
12
f8
40
7d
f6
62
af
c6
71
bf
8a
a2
e8
19
4e
04
57
a0
91
d8
12
7c
d9
0a
51
a9
8c
d0
86
4f
c5
20
74
26
c3
ad
55
2a
9a
b5
64
3b
5e
e2
79
fb
ae
41
d0
bd
68
97
d9
8b
8b
c3
5e
fb
50
31
ae
c5
99
c1
af
0b
00
2c
07
5a
48
ee
e5
ba
17
38
c2
81
e9
b2
eb
a9
b8
3c
68
84
a6
96
5f
d9
d4
97
7b
18
5b
74
39
8e
4b
22
ef
25
8f
cf
b8
6a
56
61
38
85
4e
06
94
5d
91
63
21
12
f6
17
95
ef
fb
ce
99
4b
14
f2
37
63
a5
42
0a
c0
4b
60
6c
f2
e5
08
c8
de
6e
b9
69
1f
33
b7
53
eb
50
cf
bd
b8
d2
09
57
36
05
8b
6b
f2
76
95
20
e3
84
d4
b2
6e
ce
f7
94
31
02
9d
00
52
bb
4f
81
bb
00
93
6d
db
cb
7e
f3
46
0d
c8
ea
78
a5
4f
bc
50
ab
a1
51
08
b2
6e
07
f6
40
7a
45
6b
c0
cb
b4
bf
e2
f4
c8
c2
3b
b4
92
d8
34
c6
70
04
6f
5a
b3
c0
91
2e
46
65
1e
b9
78
bb
6a
a2
24
7a
d0
f2
84
e1
b9
aa
7c
13
0f
ac
f4
a9
9c
87
a4
e0
0a
3b
a3
53
de
2b
50
1e
d7
3c
5b
27
2d
46
6c
46
3f
26
35
09
4b
b8
db
03
00
18
d5
75
dd
b6
8d
7c
7c
e4
bf
8d
bd
b3
08
68
41
5b
9c
3a
af
16
20
98
9c
91
20
16
ac
05
e8
d2
2b
57
51
15
d5
b4
a3
0f
32
c1
7e
15
95
e8
f3
ef
6e
ee
b9
be
ec
57
41
82
6b
7c
cc
de
0f
76
5c
6f
a9
30
9e
80
f3
89
64
e5
29
f4
dc
70
b5
40
f5
f1
8f
0d
c7
94
da
8e
58
0a
f9
07
f2
4b
6a
bb
bf
92
30
69
e3
d2
5f
21
16
4d
5f
77
29
8d
53
e5
78
cd
0b
a1
98
cf
a2
eb
4a
75
4c
69
cd
0d
ff
1f
95
84
31
30
c0
d1
84
e3
ec
7d
91
9d
64
c9
a0
a1
01
e9
70
1d
50
e6
41
c2
d1
cb
30
ab
14
a4
1a
d3
aa
35
e8
25
97
6d
74
85
a5
a1
70
be
bd
1d
f8
a7
07
2b
c3
a7
59
22
dc
9d
fc
cb
21
30
f9
17
b9
c2
7c
fc
3b
bd
e6
7d
cc
32
1f
5b
ba
0b
a7
2d
99
f9
0f
69
d1
62
52
6a
6b
57
69
dc
84
ab
62
34
8c
0a
5f
cd
b4
23
c5
f6
d8
9c
61
85
53
10
bc
41
06
cf
82
15
8e
ee
99
bc
32
ae
75
78
a8
a6
03
90
21
63
02
a2
4a
9b
69
10
28
54
5d
aa
53
65
66
0c
b6
8a
05
de
d7
ad
ce
de
a1
c2
79
cf
f6
0f
fe
b2
17
3a
a4
d5
e3
f4
9d
66
21
b5
66
66
db
43
f0
dd
d1
c0
66
c1
6a
44
93
dc
b3
cb
fc
3b
43
14
01
e3
d3
9a
65
12
ce
d6
2a
7b
bf
0a
2d
e0
ab
93
a0
f2
f8
6e
1e
05
4f
a6
af
6d
f6
07
91
02
b1
fb
b1
94
f4
44
b4
52
42
d4
7e
9a
7f
00
bb
a6
dd
e4
d4
df
fa
59
fd
da
0c
a1
c0
4f
15
eb
78
e0
7c
c5
b4
9f
ec
2c
99
d4
c6
78
85
fe
a6
30
b7
07
3a
72
85
93
7d
10
4e
28
fd
48
c6
1a
a9
23
39
d1
6f
ba
15
73
6a
07
fb
52
e0
a0
88
74
c2
e8
2a
cd
f7
ba
e1
01
a7
ca
a8
b6
a1
56
b6
a0
5b
ad
17
d9
36
82
fe
95
c3
80
07
f5
d3
b2
e2
bb
0c
4e
85
2f
ff
52
7e
04
60
41
ed
36
8f
d7
1c
15
cc
d6
89
59
7f
b0
4c
37
97
54
8d
e2
b9
80
48
97
e7
02
5f
4c
3a
7f
08
b1
6a
18
c7
30
05
b0
8c
33
1b
12
45
24
14
d2
6b
31
50
8c
cf
68
98
d9
9f
3d
45
80
3d
15
2d
6d
b6
d0
27
b8
ab
78
5b
a1
ce
a6
f7
f7
23
df
25
cc
a0
e4
2e
32
c2
ad
f6
28
23
be
31
4e
ee
aa
19
c0
7a
6c
cb
39
b5
8f
72
30
fa
ef
fb
e6
51
be
0f
82
61
53
64
69
ed
be
1d
39
be
73
7a
fd
a5
b4
cd
80
6a
61
db
bc
61
93
4b
82
cf
ea
af
dd
76
fd
68
78
62
30
e5
65
0f
3b
6d
83
80
c3
2c
e7
c8
f2
bb
b7
41
51
b1
66
59
4e
0c
c4
dd
30
af
9f
9c
54
1e
11
cd
53
45
e2
fd
e8
28
69
68
55
a8
b8
4b
08
64
f6
e6
2d
1b
88
b0
77
fc
1e
e1
44
5b
71
9e
87
ca
24
9f
c2
7b
75
0a
49
44
af
ef
7c
16
43
06
e8
73
53
8b
24
58
71
f1
ff
e0
b1
9a
ee
86
39
b4
46
58
f4
53
71
b2
37
6d
ed
6a
77
86
c5
46
ff
3c
1e
8c
87
47
d9
7e
8d
87
e5
95
45
76
88
4e
ae
cf
02
33
de
91
de
f8
75
73
ea
00
dd
d8
2a
f9
60
27
51
b4
ae
d4
17
6d
a1
50
ae
e6
f1
88
a2
a4
e7
b1
a4
00
c0
a4
1f
da
c0
c8
9d
fd
da
92
20
b2
22
53
64
25
ca
94
b9
96
a2
0f
3a
51
ad
2f
17
af
4a
c5
51
ab
f9
a3
32
2a
e4
e1
01
17
0d
a0
4a
3c
83
38
01
e7
9e
04
10
6f
66
68
b9
b3
41
f5
e9
dd
46
77
53
d9
49
7d
29
cc
dd
88
6d
9f
96
17
0c
26
66
73
20
70
8a
14
c7
87
e2
a2
e4
f9
11
b5
87
48
e1
63
d6
73
fc
d5
9d
9e
62
09
c3
cd
76
2d
76
0e
92
d9
0c
4f
12
49
de
91
44
8d
d8
50
e3
11
e7
68
61
0c
8a
4c
ce
45
8a
74
ee
9d
d5
39
7f
51
17
2d
b2
3c
e3
48
b8
54
99
e9
1e
0a
88
30
b1
dc
bd
26
71
18
37
b8
cf
31
dd
d6
34
78
29
b3
51
b9
5d
73
57
5f
b8
06
71
a2
60
2c
5f
28
00
76
a6
fa
0f
82
ba
e6
dc
6e
e7
93
96
e7
87
6c
58
20
58
2a
45
e8
4c
ad
ac
a7
bd
70
e4
b6
28
4b
81
92
59
79
bf
14
c7
22
1c
bc
e5
a8
83
56
35
0f
cc
d5
78
0b
b2
76
16
5d
b3
c3
76
85
6e
f5
07
36
72
47
f5
f9
1e
18
13
42
cc
c8
46
6b
e7
55
ff
84
da
2a
ca
e8
70
75
49
7c
3a
7b
0a
af
50
25
b9
bd
3b
2d
f8
de
56
ee
59
a9
a7
78
43
9b
1a
41
24
b9
98
1b
52
2c
b4
ac
8c
e1
5a
bd
7e
30
82
af
3a
63
0e
33
64
43
42
bc
4e
8c
4f
e9
66
5f
f6
e5
83
ff
c8
0a
0b
99
bf
66
42
5e
55
1b
b7
3d
bd
af
75
36
f6
82
50
7d
d6
ba
8e
c8
c6
e7
71
6b
6d
95
4e
22
da
06
1a
59
84
c4
28
02
97
cc
a3
07
72
a3
a3
1c
7e
b3
2f
ba
34
a0
6f
60
41
af
d7
6c
3a
9c
ae
68
a1
1c
c5
5b
75
40
4e
5c
12
97
be
39
3a
ae
95
98
6d
de
5e
18
d2
1f
da
b6
88
85
53
c4
8e
16
18
77
88
df
e1
b5
f4
5b
41
00
2c
5f
21
70
e1
91
8a
85
96
92
40
bf
6b
25
2b
99
30
17
d1
14
8e
73
86
0e
2e
90
7d
fd
4b
4d
94
25
27
d7
c6
55
b7
1d
a7
ba
ea
bf
f5
a3
21
46
af
18
f2
78
5c
e8
ac
79
15
12
ce
20
0f
47
d7
61
c7
13
c5
ec
9b
c5
cc
46
f6
df
ad
d5
0b
be
28
7b
88
2e
ff
c7
d7
f4
3d
c1
a3
eb
b3
dc
c4
34
1d
01
b9
ca
8f
37
e1
fb
e0
1b
6c
1e
d1
1e
23
80
a9
5e
97
91
65
1d
20
0c
fb
f3
42
9e
77
b7
ab
88
6a
dc
07
a4
77
e2
77
a1
11
36
ff
e8
ba
e6
15
f9
ab
54
60
88
6c
ad
c7
08
25
9a
58
e1
c3
e6
ab
2a
db
1a
b6
d9
0e
db
5a
de
9b
ce
c2
35
c8
86
2a
2f
2a
fd
04
a9
47
e0
ac
a6
11
00
c5
3c
b2
d1
87
1b
f0
3a
e0
bf
b8
a0
a1
41
d7
5e
2d
ea
54
c7
83
3f
09
a6
27
c2
23
34
89
98
e1
db
17
1e
69
29
d9
01
6d
10
f5
a4
a4
af
06
b6
7c
ed
14
e6
46
ac
b1
08
71
b2
d8
46
0a
eb
1c
b6
88
50
bf
47
bb
33
86
c1
e5
b5
d1
e1
d1
cb
71
7c
87
ed
e6
f2
fa
1d
c2
03
8b
22
b8
a9
ba
f5
e6
9c
1f
31
e9
75
5f
2d
92
98
89
55
c6
6a
16
b0
b2
1f
dd
c1
24
f0
d5
03
e9
23
ae
2c
40
7d
df
fa
93
d4
21
fb
b1
ee
d4
c2
3e
48
d5
2a
41
8a
09
61
af
c6
ae
2f
b4
3d
3e
27
ce
78
3a
4a
ac
97
cc
c9
b3
16
61
5a
aa
6a
f8
22
67
59
82
2c
9d
48
ec
7b
d8
da
6c
a3
a4
52
9a
ed
11
06
ed
bd
2b
88
61
f7
98
da
f8
3b
ba
6a
a3
ed
89
bc
0a
41
6d
a5
97
05
50
ff
fb
31
24
2a
20
4d
d2
19
59
27
f6
0a
1b
f4
86
e9
d0
14
b2
16
d6
15
9b
21
1a
8e
af
90
77
bc
31
e9
c7
da
f3
81
a2
ff
6b
09
b7
dc
77
e7
11
54
2d
69
6a
6d
ed
b8
26
c2
43
79
9c
44
d6
cf
53
c3
4f
06
1e
ca
7a
ef
61
35
5a
4b
75
fd
87
8a
38
3a
d6
3f
c1
f0
bb
42
45
0e
8a
b6
69
28
85
11
3f
d1
26
a5
77
ad
16
7a
20
3f
4d
60
8a
cc
2d
8c
08
33
66
dd
81
35
97
a1
7c
ec
cd
61
77
38
fe
3d
80
cb
6d
23
c8
dd
a9
12
43
d3
0d
f0
aa
61
cc
de
69
5d
ff
25
ca
00
70
63
19
61
95
73
6f
38
d2
8a
ea
04
08
e7
5e
e2
e9
6a
3d
ee
40
c9
26
ac
9b
f6
a1
a9
ed
12
a8
fe
84
f0
82
42
56
ce
f3
1b
82
8a
9f
4d
9e
af
16
c6
3d
b9
52
26
a7
b3
88
b4
19
0f
9a
d3
4e
84
db
8f
84
09
d7
72
4d
d2
c1
5e
eb
fb
67
22
ff
b6
9a
52
9d
c0
cf
2f
af
f6
bd
fd
3e
ac
73
b0
a9
cc
f7
24
a8
91
08
3f
06
bf
8a
e0
7c
2c
ea
00
b2
67
87
12
ad
54
e2
5e
e2
62
f0
e7
5b
36
30
90
4d
3b
b7
6d
31
5f
55
0c
42
88
9a
c8
e8
79
5d
cb
98
f3
8d
a3
1f
f7
7a
24
82
09
cd
10
ad
35
92
27
fe
05
f6
03
85
34
37
64
b9
87
1e
58
4b
29
e7
60
40
75
79
51
cb
9f
e3
4e
d9
ee
be
01
ed
e9
16
a9
cf
cf
ca
b4
4c
7b
53
6c
c8
20
3e
25
ef
9e
0e
81
43
07
b6
89
03
a2
2f
d7
f7
c9
ba
58
e4
cc
eb
2c
32
9e
c4
1c
e5
e0
e7
3f
cc
a2
f0
0f
5c
f3
24
f9
b0
04
58
2a
f9
d8
59
7e
53
65
84
5f
7f
32
38
cc
85
60
ed
29
01
d4
d7
c1
00
21
07
3e
33
d3
52
a4
93
b5
29
24
d1
ea
a2
de
35
33
b2
d8
33
97
e7
3c
c3
cc
f1
c2
ca
23
8b
18
43
fe
fa
1d
0c
b9
f3
cf
c5
de
89
12
94
48
74
aa
61
2b
0b
79
6c
93
bd
3f
1a
3f
00
ab
21
6b
2d
e4
fb
40
91
de
e4
64
0b
0c
a3
42
71
b1
df
96
1c
19
68
56
16
0f
b9
1a
b4
9b
98
f8
5d
69
ad
35
27
c0
0f
38
37
44
8d
ac
2e
86
0c
36
e9
47
15
aa
06
25
63
5c
d0
1c
6d
51
4d
62
4a
74
7c
71
1d
92
36
b4
3c
eb
bc
e7
99
d9
f1
ae
19
12
a3
7a
68
a3
6c
4a
43
16
78
63
b1
c4
bf
eb
b1
d5
9e
58
e0
2b
2b
32
e7
7d
19
2f
7b
83
d3
ec
68
86
44
d2
40
90
1a
04
d0
bc
3e
25
d1
08
1d
3e
50
89
51
7f
a8
12
35
db
e3
9e
73
a8
ae
d0
90
d2
99
10
52
d5
46
11
07
dd
ab
6c
86
59
14
46
16
8b
74
1f
20
5a
56
e9
87
bb
af
2e
30
5b
e6
e1
13
09
9c
9c
bf
a8
0f
5c
c6
11
4c
7c
50
ba
d2
80
89
83
e8
8d
2d
77
e3
19
2f
43
a2
bd
45
40
60
30
f5
d5
22
88
ec
e4
5b
34
29
bd
fe
94
17
4f
f0
56
ba
c5
5a
89
fd
22
1f
e6
52
1f
f3
98
44
11
2c
52
96
08
0d
c5
ec
73
30
c2
7e
8e
78
24
d8
18
52
9b
3d
02
a5
03
51
55
20
df
9e
3e
36
fe
af
1f
e1
aa
b0
d0
84
72
c9
1a
70
49
9d
0e
3d
6c
e3
e7
73
ce
02
c1
ec
5a
ad
3f
48
62
64
8b
b8
c0
23
92
b3
3c
71
dd
e8
88
34
df
d8
e7
10
c6
c6
38
70
42
cd
d2
0c
be
ba
d0
e5
3c
a1
ca
b2
cd
ce
99
73
1e
6a
eb
f7
1f
76
71
67
90
b7
ce
35
fa
97
09
0b
f5
e1
61
01
c9
8e
9c
0e
c5
d6
f4
8e
e3
2f
e9
21
6f
f2
43
f0
cf
7b
7b
26
04
04
b7
ed
7c
ba
34
da
cd
40
40
4b
b4
fc
82
b9
e6
3e
ae
5b
db
95
9c
d0
f1
5c
bb
20
0e
ca
89
b1
e8
19
14
89
42
c9
91
9a
80
0d
39
9d
54
43
18
c0
77
ba
a7
d8
3b
64
c7
3d
b7
a9
fb
63
46
8f
f5
e2
62
8d
fe
c9
be
48
3e
f2
94
2c
32
c6
c6
c3
4e
5d
3b
45
c9
e2
fe
d1
51
6c
00
63
3a
53
3e
25
d4
97
c0
00
64
7a
05
b0
8d
2c
6a
42
14
da
65
59
45
03
c2
a1
5a
f7
35
54
e9
36
d7
45
81
bb
5d
22
c5
8d
37
37
39
10
b0
3b
47
7f
3f
da
6d
19
9c
9c
4d
5f
1e
5b
72
cc
7a
b0
f7
f4
5b
67
a5
8b
61
73
8c
e0
b4
15
d1
c1
42
64
a2
ae
d9
02
74
c7
9c
74
a3
c4
6f
2e
97
8e
d2
8f
74
fc
f6
62
46
41
1c
91
25
ea
0d
b9
b1
7c
57
93
f7
b5
6b
da
50
f4
37
54
ed
4b
89
ca
11
00
76
3e
19
1b
8a
dc
e5
05
74
2f
b9
7a
b0
61
57
e0
99
33
90
81
1f
d7
87
19
27
f5
58
7f
a1
d0
81
7b
d2
e1
74
eb
5f
d2
5c
75
37
ad
9a
63
e1
c0
8b
23
e7
aa
71
9b
11
d8
c8
e3
8b
02
43
90
6f
de
ab
4c
88
71
42
31
e7
5c
77
55
94
7c
c9
11
c8
0f
d3
7a
f2
fe
7e
53
a5
cb
cc
3a
2c
e0
a6
63
fc
50
55
68
71
de
20
49
55
a6
68
10
f8
46
8a
92
1b
61
db
5d
95
d6
3a
91
d5
d1
d9
cb
0e
1d
25
0b
30
ce
2c
2d
4c
26
00
3a
9d
df
33
2e
2e
e3
98
ef
0d
46
4f
40
c3
59
67
7e
82
32
a4
af
79
18
b3
42
74
02
55
d4
f2
dd
90
3c
3f
12
bf
8c
0e
4f
12
af
d6
d4
a5
ce
9a
2a
4a
ea
ac
75
e0
f6
70
93
19
ea
d9
33
e3
b6
36
0c
e9
95
78
fc
bf
79
4f
7c
6c
9b
17
25
45
a1
78
5c
fd
79
78
89
c1
86
ba
b8
9d
35
8a
92
58
98
18
59
c6
88
79
69
ee
32
4b
e8
ca
54
3b
4d
8d
1e
5b
a7
00
f6
88
2f
da
1a
c3
da
27
b4
fb
d8
3c
b1
3d
a8
62
f1
6f
89
81
94
41
3f
34
99
f8
ae
e2
df
3e
c4
8e
d7
19
4f
15
11
81
af
28
fc
e3
0b
45
82
14
a8
9f
22
0a
0f
90
84
6a
1c
ad
78
7b
0c
91
5c
77
a0
28
0c
fa
61
1e
92
4c
b9
b0
e6
a6
94
d0
10
0a
f1
f1
0c
20
e6
0c
de
6d
a5
9d
2f
8d
c0
8a
3d
2c
c9
ac
45
2a
e0
2e
54
96
5d
96
94
e2
e3
22
86
c6
2f
cc
96
f4
e1
c3
94
9b
cc
11
fe
7f
9e
ad
a6
db
90
a8
7d
94
a9
ab
48
9d
48
59
49
16
c2
89
a6
f3
8e
32
be
f5
e5
6e
23
ce
72
05
d7
a2
b4
e2
71
7b
7f
dd
f6
93
c1
e6
52
a7
15
08
66
33
a3
04
bf
17
42
62
ba
d4
dd
f5
b6
e8
e6
7b
93
c2
a8
75
e3
da
25
82
79
3e
99
39
9c
19
0d
ef
07
b4
cf
45
ab
ff
5b
75
c5
85
15
49
a1
a9
4d
a6
c2
04
cf
d5
29
5f
ef
5b
4a
64
0b
7a
f1
1a
d3
15
27
95
23
cd
0d
f2
73
c7
8d
68
9c
c9
18
0c
4f
24
9e
1e
41
6f
04
06
5b
9e
76
13
35
c2
74
36
7d
bc
3f
76
67
a3
ef
6c
3c
0b
9e
65
fb
cb
22
d8
b1
e4
92
a8
99
fc
e0
0f
f1
09
63
82
f8
a3
52
a2
e1
14
a2
e0
1e
08
7d
47
e1
82
c1
1e
13
0d
53
e0
00
45
14
d5
86
0f
96
63
c8
e5
b6
87
82
c7
99
96
71
95
d3
f8
e6
ad
db
23
63
52
e3
0d
6d
2d
8b
b7
82
26
4f
7b
98
a5
a7
cb
9b
3d
d7
9b
45
9c
b2
59
22
6c
64
a7
46
03
d8
7d
3e
21
9f
3c
a7
9b
f7
b1
2e
7a
da
b1
71
f7
d8
95
39
44
0a
c8
ac
31
5a
8e
e3
85
1c
22
a7
bb
99
e5
a4
db
1d
24
46
a4
ef
8b
4a
fd
5b
1d
ad
13
d4
6e
5e
ed
1c
d8
41
f5
bd
73
7e
3b
f6
c4
e0
6e
7f
ce
52
b5
36
05
a6
9c
9f
61
85
c1
78
97
59
80
cd
84
83
e3
c0
1b
19
27
17
5a
37
59
ad
c5
ce
07
d4
9e
b7
54
19
73
68
47
0e
2e
19
f3
22
ec
cc
63
f8
bc
01
e5
18
4f
65
0d
bc
fd
2c
20
09
e0
3c
04
e2
af
87
38
fd
e4
55
91
00
6f
89
83
c5
67
d5
b5
f4
7b
32
29
f2
f8
81
e8
07
4e
4e
4f
0e
57
36
bc
05
59
9f
a8
a8
0a
4d
b2
8d
1e
88
21
67
22
d2
a1
5f
3c
11
10
58
80
f7
52
a5
95
5e
d6
eb
1b
d7
45
39
f8
3a
4d
a7
2e
b0
b5
ac
18
f5
27
c6
ae
94
87
45
0e
60
94
97
69
24
f4
24
b0
9c
0e
94
a4
4e
5f
7f
7f
81
ce
37
a7
9f
7e
a0
39
63
ed
ef
70
92
e6
44
c6
79
f4
4f
1a
fa
89
69
5c
12
33
3d
55
4f
a9
8d
e5
49
e3
7e
ee
2a
1e
b9
bb
c3
c8
6e
05
0d
34
09
31
f9
17
29
5b
fa
74
55
49
14
ef
c5
48
54
f8
8c
19
58
5a
d6
2b
60
05
26
da
e4
d0
f4
b0
85
e0
5b
7e
c1
f7
96
01
1f
1d
e1
21
0a
00
06
ad
66
d3
40
09
17
c9
a4
14
a5
04
df
ef
9e
b3
3f
cf
98
79
83
e9
f6
d2
4c
50
3a
b1
46
c2
04
12
4a
29
74
c8
b2
a3
74
22
ff
ab
92
cf
37
ea
26
4a
f2
37
48
9a
ed
a3
63
2c
e5
44
81
f8
f5
25
1a
c0
14
9b
85
8d
e0
43
56
96
f0
0c
5b
44
67
aa
0f
e6
74
c0
2a
1b
1c
42
c0
70
e6
77
8f
f0
22
74
bc
9d
94
88
00
c7
4f
43
a5
4c
09
53
8e
bf
24
88
d6
f7
d7
15
c1
40
54
cc
1d
0e
8a
71
59
12
bb
26
a9
23
b7
b8
31
97
68
0c
1f
9e
f1
b3
51
57
0b
52
6a
70
2d
9a
40
ea
d7
85
7a
ea
5a
ca
93
f4
0a
6c
f7
da
43
c9
95
7f
f3
9e
3a
91
43
3f
b8
59
45
6c
31
ce
f5
f4
55
e5
18
26
7c
be
3c
19
9c
a1
c5
af
81
9e
fc
ac
64
65
a9
51
c5
f6
52
bc
16
47
c4
1c
96
d7
86
7b
0f
d3
e4
dc
4e
d9
86
a5
c2
ec
c7
72
65
11
ac
84
54
4e
3e
07
c3
2b
12
df
ce
6f
ea
15
ab
c4
dc
df
b1
b0
4d
35
17
19
41
12
22
f8
a4
9f
f6
30
e0
0b
23
3a
c2
43
69
aa
25
5f
bb
b4
0e
82
17
6d
ee
c3
2f
08
10
a9
81
0a
2a
a1
3d
f1
6c
f3
d7
23
d8
be
d9
02
9e
64
57
ac
9c
b7
53
48
46
a4
be
82
4f
d7
0a
b9
91
38
e6
aa
06
24
17
4c
48
12
a3
9e
0f
b1
09
8a
c6
3b
b4
65
84
30
e3
8e
1e
9b
0b
57
4f
1f
08
7e
09
b6
b1
64
98
cd
6b
14
4e
36
e8
b6
93
a4
ad
9b
1d
5a
9e
f3
7b
63
41
ea
c7
9a
92
4e
b0
01
eb
db
7e
2e
06
e0
3c
f5
71
7b
3f
d8
ba
72
20
7d
b7
d4
78
1d
77
e1
16
23
40
6a
0b
8f
62
b4
46
b1
ae
4d
fb
92
96
4c
d7
19
23
90
79
46
87
e7
67
2b
c6
c1
23
8a
7c
06
6d
48
93
9c
54
c3
ca
aa
b5
9c
30
47
df
86
c0
fb
ab
92
21
7c
e5
54
b0
1c
a5
91
86
02
1a
16
1c
a0
0a
dc
41
6e
bd
e7
b3
c0
86
3b
32
6e
5f
4d
69
f1
b7
e4
46
2d
4c
64
02
f2
5e
9e
53
07
8d
dd
11
17
7c
64
37
90
73
36
0f
99
dd
88
33
c2
ec
89
49
3b
9f
d3
d6
ea
f7
33
09
91
9a
b9
ae
7c
e8
2e
c6
aa
bc
a2
33
87
62
67
bb
9f
a5
cb
f7
be
c8
59
47
cb
38
b1
20
1b
44
bf
22
ba
61
77
a8
57
28
55
98
bb
40
a8
d5
07
ea
59
91
6a
7d
1e
f0
42
78
cd
38
88
65
23
6d
ab
20
9b
10
43
8f
d8
2e
7e
da
50
b3
d0
3c
59
5f
3d
2e
c8
98
14
74
85
27
65
d0
be
b0
8d
1d
5c
6e
bc
a0
e8
d8
16
56
75
ed
62
f3
52
ef
44
66
98
91
86
b0
84
db
a6
d4
90
44
be
83
bd
1f
ca
1f
36
7a
df
39
a9
5e
d9
7b
99
4a
11
32
1a
48
8a
af
c4
3d
0f
22
b3
5d
56
ff
83
e5
89
7d
31
a5
a0
88
6f
80
c1
62
fa
45
09
2a
23
82
d8
c2
d5
8e
a7
87
b7
ad
e7
20
c0
a5
df
17
54
f2
7b
1b
01
88
c7
7a
21
60
d4
f4
82
0c
98
41
32
8c
16
39
f9
c3
64
6f
8b
c2
91
34
06
f7
51
6e
4f
bc
ea
5b
b7
dd
31
16
6a
0e
73
43
b4
50
f3
cd
00
01
bf
00
62
ec
2d
2c
1c
b4
0a
ae
07
fa
7a
15
e4
0d
f7
80
0c
82
85
e8
29
ed
3c
6f
00
7c
eb
da
fa
36
c9
8b
76
b2
ed
51
83
b5
66
7a
d0
db
da
5f
9f
27
8f
28
9f
4e
72
fa
3a
68
a0
bd
8f
87
bb
8c
67
62
92
f0
43
01
03
a0
70
e1
35
40
de
b7
06
88
53
a3
de
3e
57
75
4a
b3
fb
54
ea
14
e9
87
91
d0
67
d3
8d
a8
38
b5
0b
1a
b4
4a
aa
14
5f
d0
cd
fa
a9
7a
80
80
16
a0
4b
43
97
9c
0e
d7
77
69
c8
9a
5a
0e
64
a6
7b
9c
a2
5e
34
c2
1e
17
26
88
03
c1
25
61
2c
1e
08
42
40
00
8c
6a
12
0e
9c
26
b9
30
e8
ed
64
1c
ba
ec
4f
86
11
ce
a0
91
25
b5
bd
9b
97
41
b2
2f
87
5c
69
64
22
40
98
0a
ff
2f
1e
ca
df
c7
33
a6
cf
f3
00
cb
e3
e8
40
ea
b9
ea
61
49
cd
2f
86
d2
02
77
72
1f
26
f9
61
14
62
af
06
82
42
ac
cf
1d
02
b7
79
78
fc
e0
79
b6
6e
e1
91
0b
fd
2c
58
43
33
88
4b
7a
29
45
39
b9
c0
e2
66
6e
dd
98
a0
5b
de
ae
f8
6a
dd
13
7a
36
df
da
e3
fa
58
2e
35
fe
9d
47
89
ce
44
8e
ea
ed
1c
71
e6
2a
47
4b
25
0b
c8
b7
d8
c2
a4
1b
08
4f
df
56
63
59
89
97
34
4f
6f
0d
e6
3d
84
35
35
3e
67
06
fd
fc
38
52
34
f6
8d
c5
c4
e2
07
73
15
60
59
8c
0a
19
49
15
8d
2e
33
d8
0a
df
e2
c0
a9
2e
6f
73
4b
c4
ab
21
87
42
33
b3
ca
3b
f8
d6
a2
5f
59
e3
d9
75
51
0e
a2
e6
1f
86
9c
6c
79
6a
fa
4c
f8
af
89
14
cc
3e
4d
c7
20
1d
9c
51
33
46
57
50
f4
69
c9
85
42
b0
ce
a1
90
96
a2
07
4e
fa
79
61
5d
f8
68
8a
e9
d5
2b
4f
46
1d
a8
f3
6b
f8
8b
8f
35
d4
f3
76
84
0a
ff
a9
d0
67
f5
22
c7
3e
f2
dc
42
7c
7b
9b
84
58
db
71
7c
dc
15
7e
71
41
50
e6
28
58
78
2d
cd
c3
44
c5
9c
e1
4e
a5
e3
8c
cf
54
4c
c3
49
c7
59
bd
70
b1
ab
64
c9
f4
90
e0
00
a7
30
eb
94
3f
34
03
6e
b0
d0
c9
9a
84
b2
c5
76
57
67
7d
c1
ca
10
23
4d
d9
39
99
25
71
20
7e
e8
fe
8e
61
51
65
69
04
17
0f
1e
54
41
40
b3
89
0b
f8
f2
54
be
b8
9f
67
5b
35
be
96
10
12
ce
8c
28
13
f0
50
75
0f
c2
02
30
a8
d0
b8
cf
cb
70
93
3f
7a
c2
82
93
8b
b9
86
9d
c7
66
99
57
d7
38
cd
8a
97
ba
20
9c
75
eb
e2
2a
5e
4f
f6
48
30
67
6a
23
ae
75
a8
19
4d
d6
7c
a5
d9
4c
35
24
67
d1
bf
6f
83
ce
9d
3c
13
5f
dd
6c
da
df
74
90
1d
86
be
dd
fe
56
cf
c8
79
39
b4
62
ad
91
2a
63
27
5f
27
fa
63
38
d9
4e
ef
3c
35
25
92
57
64
c2
39
8d
17
00
b6
11
96
11
e1
26
93
8f
42
82
90
22
be
84
39
84
de
ed
63
c6
81
18
33
66
63
7e
bf
b5
e3
2e
7a
eb
70
20
c2
46
bd
ca
bb
98
ee
1a
63
32
d6
09
00
05
33
61
96
c7
ad
67
98
c3
86
87
e1
30
aa
e9
53
d7
5b
ee
2c
af
d4
50
b1
a0
06
7a
b2
df
11
1c
26
5f
74
98
47
8d
64
4f
42
ce
5f
23
ef
7c
14
4f
69
b9
2a
c4
ce
5d
81
20
2c
48
d3
b5
4d
a9
7f
39
06
1b
45
c8
19
cb
6f
db
8d
d8
f9
b8
b9
0a
f9
85
1a
80
ad
5a
19
6d
4f
66
d0
db
4f
e3
0f
ba
29
58
01
1c
a5
20
01
50
b4
c0
ad
14
8a
8c
05
86
0e
0b
0c
2c
ce
97
bc
e0
54
f7
e3
9e
7f
9b
25
01
8f
b5
b0
37
3a
a9
39
d3
3b
71
77
36
56
3b
47
2c
a8
62
08
cd
53
e5
42
c8
f5
79
dd
0c
e0
bd
d0
d7
b2
62
71
67
3b
fb
b4
10
49
f9
44
20
93
20
95
e8
f1
a4
54
f7
6d
49
f6
0a
c1
e5
b5
f4
7d
ae
2d
fa
6b
63
a4
e8
ef
18
6f
fc
26
e0
4c
69
81
7b
2a
62
79
58
f4
63
9c
7c
b7
5e
b6
00
4c
7e
20
93
82
14
62
13
6f
6e
04
9a
5e
43
b2
d6
d2
47
ce
e7
59
f0
28
61
e5
87
7f
2f
3a
d8
66
21
41
63
8a
8c
b0
b7
83
96
4b
f2
95
c1
a2
7e
00
2d
d3
1e
18
fb
66
82
cd
8c
18
52
92
65
41
6c
29
12
ba
c0
0b
3f
86
01
9c
e8
a7
f6
22
37
da
0f
52
32
c4
2c
4d
35
ce
18
37
c1
ff
a5
14
78
2a
21
94
d9
4e
5e
96
60
35
89
1e
72
a1
7d
59
13
f2
c7
24
2f
7e
f1
86
d2
03
a3
79
6d
cd
1f
be
17
a3
3f
bc
06
33
6d
b0
04
0c
f5
23
bc
3f
bb
82
9e
29
77
9e
6d
e1
97
3f
62
3d
76
f5
c9
55
7b
8b
1a
b9
36
02
93
57
be
8b
fd
7c
55
7a
b1
61
b5
e4
64
92
ac
8c
4e
05
3d
db
e3
6e
7c
b0
eb
89
a6
97
cf
2d
e3
69
e2
7e
aa
ec
ff
f9
96
6a
6b
be
5d
3f
46
b8
17
5c
7a
44
8d
bc
73
e3
8a
78
af
36
57
e1
e7
47
d7
a5
30
73
87
fd
5a
26
9d
e4
8f
d4
b8
69
68
f7
b1
dc
da
6c
85
e4
77
93
8d
8f
09
7a
20
1f
e6
45
92
83
86
92
98
81
34
b0
7f
84
29
a4
1e
70
5e
37
dd
b5
73
5e
83
21
e8
08
9a
80
94
6a
5f
6c
f1
a3
c0
0d
20
bb
b4
b3
0d
46
ef
f2
8d
02
1a
08
5c
1b
85
83
b0
02
0d
f9
71
53
46
1f
39
4a
e8
73
eb
59
c9
d1
4d
f4
8b
48
5b
99
66
25
9f
b0
ba
e3
ab
55
33
a5
78
21
fc
97
22
cb
5e
2a
23
c6
81
e2
e8
10
40
54
16
85
d1
02
79
41
1f
cd
be
23
cc
87
f0
35
0c
19
ef
96
35
9e
5c
f5
44
59
04
a7
e9
7f
2a
ae
99
39
25
b9
e3
1a
fb
62
ea
5a
bd
90
21
73
7d
37
62
f5
62
99
86
8a
0a
d3
e7
90
c3
09
c4
6f
d4
8c
cf
eb
ed
3d
79
f0
bf
0e
17
c2
b2
d9
d4
a1
c9
50
1e
df
91
ba
4d
0b
6d
53
a3
7e
33
98
7c
52
6a
ee
98
37
93
66
01
85
97
4f
cf
f5
73
a0
9c
30
86
5a
b0
88
13
e4
18
24
57
5e
e7
d3
fb
21
62
33
2e
b5
f0
f8
7e
2b
c8
b9
45
83
ad
88
20
47
82
df
88
e0
bd
9c
96
e6
9c
12
e6
41
72
41
50
1f
8b
8e
af
f1
92
f8
93
b1
b2
6b
e6
8f
59
67
06
b2
e2
45
1e
dc
a1
a5
89
4a
ed
89
fc
6c
db
8c
99
a7
4d
61
e2
a8
21
1f
4d
70
97
a3
87
e6
3b
d6
3a
4a
86
b2
6c
33
00
82
bd
bb
05
63
b7
4d
23
35
c7
45
33
b2
56
c6
41
5f
58
db
22
d7
77
91
8a
2d
fe
da
66
4c
7c
89
a5
fc
5d
6d
31
aa
f2
59
c0
61
c0
40
5d
d4
2d
52
97
e6
ef
65
1d
97
56
ce
d6
a6
d8
7d
f0
5b
bc
23
8f
63
a0
d2
13
26
bb
88
bb
8e
98
17
f9
bc
74
a1
2a
43
ee
ef
fe
6b
24
fc
67
58
ee
86
33
2d
24
28
b9
20
b0
ce
1a
d0
ad
b5
7f
f6
34
33
c4
33
5c
eb
60
32
f1
89
ea
b8
7f
0f
f7
8f
26
fe
db
a5
fe
51
bd
1f
59
13
4c
7b
94
c9
4e
bc
52
53
2f
ec
13
94
4a
ad
06
50
01
94
19
b8
f6
ad
36
0b
c3
38
4c
fa
2d
2a
fa
b3
f7
aa
70
51
6a
95
d5
9f
89
7b
2b
f6
78
f9
63
75
24
d8
bb
79
e4
d3
4f
bb
e1
97
79
18
96
63
50
17
17
e1
c0
4a
49
ca
7d
9a
a8
4d
b0
47
c8
e4
9c
e9
7c
de
e2
e4
fd
a5
af
18
b9
10
f0
5a
5a
af
7d
0b
ad
28
ae
4b
b8
fb
fc
fa
72
73
41
63
91
95
8b
9b
f5
2f
3b
73
72
fb
b1
73
01
71
dc
e6
92
a5
62
eb
53
00
70
6f
18
16
39
ab
05
94
ad
13
e9
06
30
f5
a9
79
be
ab
73
ba
09
42
cf
57
47
d0
f2
e3
8c
4b
29
34
df
f2
75
1a
b4
d3
a3
fb
cf
c9
da
75
59
7d
95
98
1a
54
0e
f5
a6
ed
af
ef
ed
59
be
0b
4a
dc
6e
01
e7
d5
69
c4
af
1b
d3
5d
bf
6e
08
ba
b1
90
f8
b7
45
00
31
74
6f
04
35
ce
06
fc
04
fb
69
71
28
24
10
90
7d
c5
79
5f
3c
29
96
a0
04
96
fb
de
87
bf
5a
19
3d
79
98
68
38
6f
6e
22
d7
b8
ab
df
59
57
e9
01
82
68
50
82
ec
dc
c5
b0
a6
93
3b
5e
bf
41
3c
f5
21
b6
e9
2d
30
17
c0
59
24
e2
3c
9e
97
84
84
9a
17
82
2c
66
ee
6c
e7
3d
27
06
28
52
58
f3
7a
63
c1
de
25
a9
fd
d6
ec
dd
ca
46
29
37
93
81
5c
f9
5c
6b
fa
30
59
ea
d2
17
ba
7a
6f
a0
2e
cf
85
07
5a
3f
e3
f3
b2
6b
78
5e
02
46
35
4c
70
dc
d6
b4
92
7c
ab
dd
3c
ac
ac
18
9c
df
b3
32
b7
60
16
8c
94
db
e1
b6
73
a0
cc
0f
a9
21
62
6b
ee
f8
7b
21
68
2a
5c
15
74
21
8b
22
e8
2e
fc
ab
49
32
ea
55
ab
8b
cd
f7
a3
b1
3c
9c
d0
e3
dc
c1
b4
f0
59
3c
51
7f
bb
6e
b9
81
76
34
3b
e3
4f
47
32
ad
c7
74
fa
2a
c2
0f
5e
91
a0
d1
bc
ef
55
c1
fe
69
66
2b
88
c1
3a
42
6b
17
b4
99
4f
c9
e0
ea
1c
03
50
b1
ca
47
9d
83
b7
e6
de
07
3f
f5
61
30
21
8f
2a
4e
3c
f4
37
3d
db
76
3a
8d
bf
ee
49
b8
c1
e8
6d
e4
c6
74
e5
1d
5e
d1
54
a8
cb
97
b4
a7
b2
86
3c
73
bd
02
ed
15
75
28
79
5b
34
ec
ae
45
61
1e
08
fe
7a
e1
fe
9d
bb
ff
eb
69
1e
32
d4
82
1e
7b
1a
7c
58
3a
8a
dc
43
90
12
55
95
4b
35
29
44
6b
b9
80
29
f5
41
01
fe
41
ab
23
da
31
c9
fe
0f
78
c2
1b
d1
1a
73
25
ce
49
a1
81
f3
43
e7
fe
4f
0a
7b
83
48
4c
6a
e0
a9
2e
a8
d3
92
82
55
ef
ea
d3
3d
a4
e3
8f
c8
43
c8
ca
b5
56
b0
f4
fb
b0
07
7d
8c
38
26
a0
4f
56
f6
b6
72
03
c8
60
f4
33
f6
d9
e7
4e
9e
19
87
1d
ea
ca
39
00
bf
05
a3
2e
eb
7a
6c
aa
f2
1f
ba
58
35
8f
36
08
6d
24
18
20
4d
73
5a
d9
84
fe
f9
52
fc
c7
1e
b6
ee
85
9b
f1
48
3c
be
2b
75
48
b6
f5
63
ad
43
c4
1f
c3
5c
84
7e
0a
80
17
f4
f1
9d
4b
f9
aa
68
95
6b
b3
c1
ed
3b
a2
6a
d7
9c
6e
d2
0a
47
7d
82
ee
2c
3b
f5
ea
c4
29
ab
f9
9e
4d
00
5e
49
48
9a
0f
48
c5
07
61
5d
37
1a
2c
60
21
bc
18
d5
03
4a
3d
e6
f6
25
e8
ec
f4
9f
ac
8c
fe
4b
b3
72
66
d0
55
36
4a
2d
78
01
6d
d9
65
ee
0d
0e
95
24
6a
23
cd
d1
54
32
ef
b3
cf
98
7f
54
23
0a
1c
dc
2b
87
40
17
36
b7
8f
dc
aa
34
54
d1
a2
ce
d2
5d
60
ff
4c
b5
31
50
e7
b6
27
f7
df
c7
59
23
82
2a
c7
f4
6a
30
32
59
c5
2d
16
e4
e2
88
e4
ab
9f
7c
13
81
22
13
32
3a
b7
96
c7
e3
fe
3a
81
6f
63
03
72
cf
a4
50
40
71
0e
ef
be
c3
a0
f5
f8
60
26
fc
e6
34
95
df
2c
ad
59
6c
1f
36
ae
24
07
fe
50
a3
cc
ca
6c
9a
5f
aa
7e
86
b4
19
2a
2d
f8
69
8b
46
57
f8
4c
87
1a
91
9e
aa
ee
90
ab
2f
94
1c
ba
36
79
df
af
ff
48
1e
dc
6f
86
52
6d
9c
64
f7
b3
ea
12
52
60
17
94
47
ab
22
33
a5
f4
35
de
98
78
64
97
cb
97
fe
e8
29
7b
26
41
03
e0
37
c1
cc
d7
dd
c0
fc
00
bf
89
dd
e5
e5
09
bf
72
a6
4c
7c
9c
c4
af
23
58
71
ec
dd
ba
93
22
cc
80
a6
c5
ea
03
88
60
3d
ec
c4
76
cc
d2
e7
64
06
d4
21
72
4b
9c
5b
3c
68
05
12
fb
c6
c9
48
40
7c
13
3a
98
7b
1d
71
98
96
11
00
8d
f6
88
12
8f
57
72
85
95
b9
f1
a0
c7
31
3b
5d
cd
88
6b
2e
b8
70
dc
86
cb
15
b8
1d
08
19
f8
74
14
dd
50
55
6c
31
ac
33
18
5b
be
67
2f
22
10
78
f1
c7
26
8a
56
b6
8b
4f
48
fa
c2
cf
2c
fe
20
54
32
3b
3a
0b
47
75
a1
a8
f2
d2
2a
eb
38
fb
47
f5
2e
9a
84
76
f4
a7
f4
a7
24
03
e6
f6
73
74
8a
54
e7
6a
b7
a8
73
6c
5a
07
0e
3a
d0
d4
94
ce
af
d7
9a
15
f9
8d
75
e8
95
8b
59
44
9c
63
14
b6
a6
a8
6c
2e
35
54
d9
58
57
4f
a7
bb
fc
a5
7c
3e
f9
9a
61
b2
3f
a5
1b
47
09
f5
eb
6f
1d
38
ba
ec
73
d1
1e
d6
3f
c4
07
f9
43
34
e0
0a
85
6b
ec
ed
69
d6
3f
b5
f9
b8
6c
cc
26
ea
45
54
4f
e3
0b
fc
bb
5a
12
87
d9
49
21
63
51
24
28
49
35
9c
d6
17
52
c4
75
2a
cc
a7
c2
a0
bb
4c
64
f9
53
2e
e3
15
68
0c
5a
4b
3b
2e
72
5a
e8
3f
33
43
7d
ba
31
ec
5d
ea
d2
77
cd
3b
82
8e
0e
7e
b9
ed
3d
b9
53
a8
4c
5d
58
a8
cb
86
b1
a5
29
ac
90
2d
e7
22
10
78
06
45
b8
6e
cc
0a
70
50
4a
e3
fa
14
b5
14
aa
d4
5e
64
d6
23
6d
31
ef
d5
12
57
37
fb
1e
fe
cf
f9
c8
b2
ba
90
ef
47
e8
27
6e
b9
98
43
f5
13
70
1c
63
4c
bc
f9
dd
94
c1
24
67
67
a0
1b
21
08
4e
08
a3
ea
d6
99
01
f0
fa
6c
55
7c
18
e4
3e
9e
cd
40
43
64
bc
da
6b
90
42
2f
5a
11
fe
33
a3
5a
b5
c2
bf
c3
3e
eb
8e
23
59
26
8c
82
46
d5
a5
83
97
9b
ac
6e
7d
13
e9
7f
fc
2d
39
01
f2
d5
fb
36
80
ed
6b
a9
8a
5b
0a
50
e2
83
f0
02
ba
53
06
ef
f9
b3
c9
0b
1c
95
77
36
fc
ef
29
38
f6
73
28
0f
b1
de
56
b9
02
28
99
14
1d
68
28
5a
c8
d4
42
d5
10
10
d7
ee
8d
8b
3e
a5
5e
60
b0
02
26
a4
ec
e4
5e
93
6f
0e
c1
f9
7d
66
4d
f8
e7
b0
57
0f
b9
29
28
6e
03
61
e1
ea
e4
ac
eb
e9
ae
97
22
31
da
c5
37
be
76
48
98
21
71
47
90
e8
9a
69
61
4a
a5
25
31
fb
30
24
72
3b
84
2f
3b
53
41
e0
67
9d
70
bd
0f
ba
54
39
66
5b
47
18
5d
4d
49
20
2e
13
8c
67
6d
a3
49
f4
72
5c
54
ac
64
85
cf
d1
92
d7
75
f3
66
e6
c3
8c
26
98
ce
75
07
bb
ac
a9
92
97
4d
f5
6e
b7
19
b1
0d
7c
c6
4e
b8
ce
93
4f
9a
e0
27
18
9a
14
b4
15
a3
2b
54
1d
0d
87
15
4f
76
65
82
fd
01
38
fb
16
92
84
38
99
19
fe
e6
92
27
8c
07
54
aa
bd
14
bc
be
02
0c
69
68
10
44
19
b9
72
cd
83
8d
5b
3b
55
a7
3d
98
71
9d
c4
e8
ca
3d
a1
94
5f
17
8a
ff
43
29
fb
78
ab
87
06
65
d7
4c
16
a4
d1
1b
71
04
be
69
2d
23
1b
81
49
c6
41
7e
2c
32
02
ae
68
01
e4
91
0b
13
51
f5
27
dc
b0
16
c8
0a
46
cc
9d
f2
f9
38
5b
87
03
b4
34
00
0c
aa
cb
2e
48
22
9c
33
8d
83
b9
25
c2
f9
b3
e0
5d
2e
a7
3e
08
fd
7a
b2
92
e4
35
e4
4c
eb
5b
d0
63
52
ba
31
d8
8e
fb
12
4f
8a
4b
53
80
b4
ab
98
b4
43
aa
4f
11
c8
18
d6
0d
56
ad
28
b1
42
39
d2
89
9f
24
01
1b
df
03
dc
bd
84
40
26
87
90
3b
27
c3
b3
fe
77
0a
d0
d9
69
25
ac
f9
bc
70
ea
37
92
e3
0d
d1
61
97
d7
c1
07
2e
cb
37
6a
8e
02
0a
83
3b
0a
47
15
a8
6d
5d
3a
d0
b5
5f
79
7a
5b
50
f9
97
45
1d
8d
58
9f
d2
3f
6d
cb
42
54
f6
72
ab
31
39
2b
4d
d1
c8
bf
24
a5
86
78
e1
7b
ab
9e
fd
e7
74
6a
5b
44
72
74
ff
55
8e
b4
ae
fa
40
27
26
0e
39
40
b8
c0
2a
1c
8b
7a
a4
6a
b1
65
17
30
b6
1e
99
44
5d
8d
2f
b0
de
23
ab
a6
cd
cf
ba
87
e5
8e
36
9e
1d
39
ff
92
31
08
27
51
fd
4c
5c
f7
ce
bb
9e
59
83
d3
20
15
c8
a3
37
2f
42
ff
68
2a
ab
d1
21
1b
74
04
01
a0
4b
d0
63
00
31
9d
4f
9b
16
97
da
0d
04
78
ba
09
df
94
93
ef
d2
4c
fc
40
a6
e9
59
16
84
60
38
a8
12
34
7b
14
38
01
65
cc
1a
2b
83
e9
53
0d
1d
2f
ef
a5
39
32
eb
d2
81
a0
f2
60
21
8d
2b
e3
6d
90
5d
87
a2
17
97
b8
86
c3
75
40
a3
e2
2d
5a
14
b5
ec
5b
83
1e
ec
85
2f
79
29
3d
dc
0f
50
4d
bc
03
7a
f4
b6
dc
77
2e
a6
9e
bc
d6
20
47
74
1b
28
37
3e
5e
cb
16
6f
ea
0c
e1
c7
db
07
e6
25
fe
01
04
47
61
72
18
cd
12
c4
44
15
f3
43
60
27
03
38
c0
2f
69
ab
2b
65
94
61
98
e8
57
04
5e
c2
f8
1d
ed
64
69
3c
aa
38
28
eb
8b
f2
00
1a
11
4f
4a
13
46
38
ee
74
81
b4
81
e9
fe
81
e7
eb
6f
60
4c
53
20
86
0e
74
02
6c
63
e3
91
07
7c
db
ca
76
fa
35
78
8e
d1
77
32
df
c4
b6
36
67
b0
90
e9
b4
72
ec
d3
69
64
cc
a1
ea
97
91
28
dc
cb
af
1a
ac
19
6d
29
7a
a6
67
f1
65
ca
a8
cc
97
a5
11
f4
27
9d
af
6f
ee
55
5b
ba
27
03
bf
3c
ac
8e
77
7b
08
1c
c5
fa
b0
3e
56
a5
00
f4
b7
ae
6d
c7
09
f2
c9
86
a4
d9
51
d4
d4
f4
fe
41
cf
af
b5
75
3c
51
b6
6a
06
65
b6
45
69
0a
d6
9e
ca
62
eb
ba
20
1f
5b
b2
ba
dd
43
4b
2c
c8
73
76
0e
f8
7c
fc
07
b5
67
76
2f
3f
b0
31
4d
22
2c
96
3c
72
7a
37
fa
3b
a3
01
55
1a
65
ae
1c
ce
0e
6a
a8
36
a5
53
b1
e9
45
dc
28
e4
27
28
6c
94
4f
90
1c
4b
16
10
39
0e
5a
b7
ce
e5
09
d5
4a
13
7f
97
fb
12
aa
18
6f
c8
1f
da
1d
45
0c
25
f6
6e
83
a6
e5
9f
90
41
be
77
a0
87
0e
f5
6f
71
e9
ef
76
8b
09
0d
ca
db
fe
22
1f
3e
ff
1b
bb
09
92
a8
f8
26
85
5b
cd
e6
c2
69
67
37
fd
e3
5b
68
67
cf
8a
8f
2e
2f
d9
77
f8
4c
ff
23
bf
bc
51
24
18
3a
f3
93
d9
0e
2b
00
bf
aa
70
dc
cd
4b
95
bc
10
5d
74
5c
46
0e
05
e2
8d
54
90
69
95
d5
fb
8c
26
b9
c0
1c
28
74
47
8b
1e
91
09
1d
2d
76
59
a0
a3
26
74
68
e1
a0
de
0d
20
6d
37
2a
c0
3d
5c
b9
17
bb
55
51
40
19
b8
98
ef
9f
d6
fe
17
1e
11
92
1b
5f
9d
9b
b2
e5
3c
7d
4b
fd
60
2d
ac
c0
75
e6
04
6b
be
db
a8
f9
e4
bb
09
1e
85
05
24
30
12
04
c0
fb
00
8f
b8
a8
8d
26
8a
d2
95
d2
22
b6
81
59
50
60
8a
ed
cf
94
31
8a
c1
a1
52
ef
2e
cb
6f
4b
51
2a
83
cf
79
ef
fa
79
81
23
e5
f1
43
61
60
a4
03
93
c4
27
06
ed
82
6f
9e
d8
dc
7d
3c
b3
2c
48
47
af
e4
fe
76
f0
0a
2e
5b
d7
ee
2e
1b
98
0a
1f
06
a8
3b
57
07
96
4c
8d
c2
be
75
21
77
3a
b9
52
39
1f
ea
24
2b
87
87
07
9f
46
21
0b
f1
0e
d9
c7
df
89
4d
ff
d8
b6
df
7c
80
5c
db
a9
a8
4c
26
b9
28
46
85
c9
f9
fb
ba
e0
2a
1c
32
79
84
89
5b
20
e8
20
31
0c
e7
22
98
ff
dd
d3
be
4e
81
97
ac
87
94
cb
8a
5e
0b
b6
f1
1f
41
6b
7c
f5
45
95
48
a0
75
d5
47
f2
49
d3
28
98
3c
2c
0e
82
0b
4c
da
cf
e7
ef
42
8f
f0
c4
fc
3d
a5
b6
8a
8d
0b
52
cd
cd
bf
bc
9c
27
16
a7
31
15
bb
ed
53
b9
18
8e
b3
58
6e
62
d8
6b
51
15
85
21
1e
ac
e4
92
3c
3a
84
5f
e1
ca
9e
5b
4d
3b
e8
b7
0a
6b
b3
15
9f
44
e3
23
03
26
0b
bb
d7
fb
cf
82
68
49
9e
fc
b6
43
03
c5
78
2d
d1
a3
3a
12
d9
24
ee
6c
ec
4f
d0
f7
fe
61
76
7a
75
e0
d9
ad
48
ac
63
eb
77
01
80
da
b8
84
73
b6
3f
64
e0
81
85
34
92
39
a0
3f
26
ec
8a
5e
a0
29
92
82
f9
10
dc
9c
8f
ec
ce
d3
bc
f0
d6
99
26
38
8f
aa
34
1a
ec
20
5e
e1
a4
52
fc
54
e4
fa
6a
fe
5a
d7
28
15
6c
ac
af
7c
be
2e
00
a5
d8
75
de
aa
29
ae
5c
e1
1b
8a
c1
be
f0
0a
13
13
5a
3f
62
37
e6
a1
cb
08
29
37
2b
42
b9
a9
b5
79
59
06
7c
7e
e6
24
80
01
f6
fd
13
f6
d3
cf
bb
2a
99
73
ff
21
6b
5f
35
b2
5a
5c
9e
63
c2
2b
a3
f4
dd
b4
04
b8
da
1d
01
19
c7
82
38
12
58
f2
7c
c2
0c
25
18
e1
64
87
f6
5c
d4
58
83
c3
36
ee
cb
71
99
86
9b
0c
9b
10
aa
a3
da
27
d4
bc
d4
c7
5d
bb
2b
56
72
32
1f
18
64
ca
71
11
01
d8
fd
f8
5b
56
e9
ab
d2
e7
2e
42
75
d9
3a
93
e3
4c
ee
94
cc
7c
df
38
95
50
f6
5b
70
42
9c
1a
95
e8
89
d1
cb
ec
c1
fd
c9
5e
db
94
c3
6d
05
2e
ed
83
6d
4b
7b
ab
5e
db
7e
0a
c5
19
6c
5c
37
06
8c
6f
33
a4
32
6e
7c
54
09
7b
b4
b9
97
ca
b2
be
a0
02
49
bf
6c
a5
e8
91
ff
74
af
de
71
9c
e7
6b
43
fb
a4
a2
cd
95
61
32
fa
87
60
d9
61
8b
ab
c6
7a
26
ea
b2
d2
7b
82
88
cc
86
64
19
d0
ff
15
e7
9f
c9
74
f6
05
f9
a5
96
fc
ab
d8
1f
ca
a9
bd
57
3b
ca
01
0f
16
5d
ff
5c
20
ca
45
2f
df
95
0b
d8
bb
8f
10
2c
e9
35
97
f0
37
cb
9c
48
12
3a
aa
b8
1e
52
f1
2a
4f
90
6a
cf
66
c1
c5
73
89
44
e7
f0
8a
26
d5
d7
27
08
87
e5
a4
8d
c8
81
14
78
19
86
ed
ce
4a
36
da
25
21
fd
24
e8
5a
96
2e
5e
38
6d
23
26
b9
61
7d
8e
5a
75
2c
eb
e5
8b
24
e6
05
71
77
09
8c
58
89
1c
b1
62
6c
1a
ea
10
59
d2
03
d2
38
28
25
88
3d
c4
a0
ea
89
0f
89
80
68
2b
9e
5b
a1
eb
d4
ca
d8
a8
50
2c
b5
af
90
9f
46
3b
ca
3e
a3
16
66
45
e8
af
4c
8b
91
8c
b0
12
8a
f7
e0
1f
2c
b2
7c
b6
1a
ed
a9
dc
0f
39
b6
b4
10
85
ea
bf
df
48
fa
23
ce
c3
85
59
2b
cf
14
ba
d4
cf
e9
51
49
ec
d0
da
fb
a2
37
52
49
25
e4
b4
e6
20
c2
c2
78
f5
3c
22
87
03
09
e6
18
19
c4
e6
ba
3a
c3
ef
da
74
4d
db
00
b8
6c
f1
fc
98
fd
ec
7c
4f
d7
d6
41
28
19
6f
f2
35
e5
ed
9a
23
73
7f
a9
b2
15
98
c8
93
97
79
71
f4
2c
82
cc
0c
bb
cf
b5
90
72
ae
0d
1d
74
5f
6d
54
98
f7
6f
c7
4a
99
30
c6
f5
dc
4a
a3
71
87
5f
c2
8e
31
7f
28
11
f6
7c
01
b9
8d
c8
37
77
10
d5
02
4f
cc
b1
e9
34
75
32
f1
b7
8c
f3
c5
82
aa
ca
1d
ce
b8
ed
12
f1
cb
81
2e
04
4f
5c
68
ba
88
16
86
11
01
46
06
f2
be
a3
8f
7a
59
a0
1c
7d
d8
3c
b4
43
60
08
77
c6
d9
e4
ac
37
b6
b8
13
93
ec
92
9d
b7
6d
80
d5
18
86
95
9c
ff
7f
70
ed
53
e5
e5
40
a5
36
ab
ef
d4
7c
17
31
ba
c4
30
c8
03
47
53
c0
f8
28
3d
15
63
17
ea
2f
c2
42
c4
6f
a7
47
b8
9b
42
7a
65
b8
b7
58
54
00
0b
ee
d2
a4
b8
43
06
46
4d
b2
20
de
1c
8d
12
e8
ed
5a
4d
35
c9
92
91
2c
a9
2e
48
d3
93
3f
05
c4
36
21
6c
99
cd
a0
0a
b6
84
99
ae
82
02
16
98
72
97
cb
6e
bd
d8
e6
19
52
c5
19
b1
2c
f8
c5
e9
1b
d8
8d
c5
aa
cb
d2
a7
59
5e
36
e3
57
2c
27
9a
12
6e
f3
2b
90
cc
7e
75
bb
07
16
79
91
e1
5f
cd
4c
8b
9b
c8
16
24
32
d5
84
e0
88
ce
bd
39
cc
b6
ed
81
a4
57
7a
81
60
48
b5
56
37
6d
6d
e9
fc
9d
14
d2
9b
a4
2f
5f
d1
7c
b7
79
70
03
d0
71
d1
40
1f
5c
78
50
66
0d
11
a1
68
fc
ef
b7
c2
fe
76
02
ac
fe
03
aa
fd
09
e2
4c
7b
e2
6d
58
da
35
31
eb
98
e2
ac
db
a9
22
2e
e1
5d
e2
cd
a1
41
78
9f
f4
c9
2f
49
38
58
59
e5
61
41
7b
d8
bf
db
03
9c
5d
2d
04
92
db
48
6b
0c
2b
70
59
ea
8f
1a
59
47
75
42
b6
dd
ae
a2
9e
64
33
3b
86
c4
32
d4
a9
58
64
12
a5
aa
0d
b3
c6
8a
2f
51
3a
2f
fe
37
42
3a
d7
b4
2e
a2
8e
68
37
44
e8
d6
29
e4
0a
ad
00
62
65
b7
be
f2
d2
ab
8f
4e
46
d2
7e
8b
89
77
8f
08
c4
c3
d2
47
92
55
9f
23
22
ea
a5
fb
97
b5
06
8b
f0
ae
78
5e
7b
3a
87
d5
6a
f9
d1
da
68
d6
3a
a6
30
82
42
4a
5c
b3
00
9e
f9
7a
96
f1
30
68
44
a3
ab
90
7a
42
34
c8
34
98
14
15
f8
5d
4f
11
db
d1
a9
dc
cf
e1
f2
7c
65
71
9c
b5
ad
7a
dd
d0
d9
37
a6
69
b8
97
cb
49
24
ad
19
96
5d
91
77
44
91
f2
2a
7e
d8
5c
ec
10
d0
6d
5b
43
7f
1e
8b
2d
d5
6f
ea
63
0a
f0
47
ba
f9
73
34
ff
26
e7
16
3f
03
02
d5
ff
68
17
3b
ce
2d
52
40
60
f8
62
54
c7
9b
e7
a3
f3
62
4f
42
d2
74
af
7c
cf
56
b8
33
8a
c7
41
f3
2b
c5
0d
64
2b
89
e9
f5
08
81
df
db
d1
be
53
e3
7c
7e
ee
40
20
e9
e9
c5
ce
7c
af
a2
0d
71
73
7c
7a
15
68
82
a8
09
db
7a
8d
39
20
b0
54
d8
38
a1
c3
68
91
37
45
11
7d
ff
80
60
08
a7
f1
02
4a
06
34
4f
a6
97
71
0f
b9
90
14
ed
d0
d5
f4
0e
6a
c6
d7
0c
f4
ce
fc
17
a1
71
fc
7b
1f
b4
78
ff
d6
59
5e
1a
e0
83
db
b4
b6
a2
08
6a
e7
42
67
b4
c3
d2
c5
49
7e
51
20
86
77
dc
8b
df
ed
b7
3b
0e
a5
cd
4f
35
ab
6e
87
02
ff
26
9e
8b
81
49
ce
42
8d
6c
c8
fd
83
cc
2b
8d
29
a3
c8
7d
a3
84
50
54
6a
0e
c0
d4
8d
57
76
c9
4d
40
f6
61
17
67
35
93
66
73
c8
ef
79
19
61
3f
70
f7
16
b2
07
e7
6d
31
5e
09
17
a7
36
63
cb
44
f8
cc
29
9b
21
0c
27
52
e3
ee
53
19
f9
5f
d6
29
78
72
01
70
4b
cd
40
ea
fe
7e
5e
d6
25
3e
1b
0c
e1
93
99
16
6f
98
21
87
20
17
f7
90
e5
ac
13
cf
25
9a
4c
2b
c0
04
a2
33
03
e0
38
7d
d9
01
6e
49
f5
a8
e4
e0
8e
02
86
3f
70
a0
5b
9b
d3
7c
c0
47
1f
fc
7a
71
f9
c5
4c
56
52
8b
16
10
1a
46
24
88
97
18
51
04
ab
0a
ab
cc
7d
76
2a
6f
1d
85
2f
7c
8f
6d
09
9d
ac
79
73
de
d5
9d
7b
35
38
8a
1c
ca
71
63
50
88
b8
3a
1e
5e
6a
61
32
4f
41
00
4a
be
04
b0
1d
43
7b
e5
fc
03
0e
96
95
10
e7
83
b8
70
f2
76
91
7f
6d
61
49
f1
0f
65
4a
87
82
de
bc
b6
19
bc
31
66
d3
9c
fb
fd
78
f8
d5
e8
e5
e3
1f
b6
c6
94
30
30
52
c4
84
5e
43
30
50
e0
28
f4
3c
91
7f
c4
19
ac
5d
17
04
af
de
ef
e2
69
26
66
3e
82
03
2a
b9
b2
a5
3d
69
95
af
ce
9b
7a
91
b4
c8
d0
b5
d0
4c
39
b5
6c
6c
36
06
b7
52
d5
7f
cb
ee
b8
db
3e
46
4f
5e
95
dd
57
ce
6f
71
57
10
59
be
b5
2f
0c
77
86
0f
90
98
6e
95
2d
80
21
8a
21
65
bd
1d
75
a4
db
a4
8a
eb
5b
aa
c1
5b
8a
1f
cf
d5
c1
fe
1f
70
7e
d5
fb
44
1e
ad
b3
e0
b4
2f
29
97
2b
cd
01
00
14
9d
32
05
2f
f9
3d
da
61
40
65
9c
9d
b1
60
cb
18
1a
cf
1c
ab
61
cd
ab
f1
8e
03
d7
9f
45
90
d1
5e
4c
a3
05
79
a8
8f
07
b5
55
dc
25
dc
0e
6f
c7
87
f9
57
7e
01
4a
6e
54
1b
c0
75
e7
b9
03
4c
4c
58
64
4e
48
f4
80
7f
c2
d5
a0
4e
f9
d3
60
3c
f3
b8
0b
f4
ca
7d
2b
68
49
9f
d6
6a
f0
d1
c2
9e
37
e8
ee
76
82
e3
8f
58
8e
4e
0a
12
11
fb
8f
a1
33
af
ea
e0
b5
b8
ea
e0
d4
dc
72
96
95
57
2b
44
61
3e
d4
06
9d
7c
59
3f
59
06
02
35
ed
cd
4d
4b
42
88
37
b9
9b
eb
0a
e0
bd
d7
a9
87
78
34
9d
f0
76
96
88
e9
a9
a1
cf
ce
f4
0a
73
21
e2
08
57
8f
1d
2d
89
eb
59
88
45
15
21
11
c7
e3
5c
fb
53
5f
3d
64
cf
56
b8
14
84
ae
42
1c
a2
0d
68
99
e1
4d
25
70
92
af
84
af
80
1c
8c
52
56
e1
8e
8b
f4
eb
57
64
3f
47
96
a1
f8
eb
4b
f1
ba
08
ba
fe
dd
08
d9
20
4c
08
cc
3c
06
96
6f
6e
b9
b1
c4
ce
3e
f6
ab
a7
2a
23
23
d2
c1
25
2f
3e
45
57
f1
5b
b1
63
50
92
47
cb
3a
b6
14
f0
3c
aa
c3
77
42
70
19
1d
af
19
b1
0e
0f
17
d6
ea
ea
54
d1
12
06
86
05
70
05
fb
82
62
ff
55
39
b7
d9
97
16
34
f8
e7
ac
02
d3
2c
d8
e5
a1
9b
81
c2
20
61
73
f3
52
af
7a
a0
70
31
61
e7
cf
c9
d4
cd
d4
da
1d
d1
dc
3e
8a
40
b5
89
c5
a4
77
e9
a5
56
01
c0
8a
02
ee
1d
d5
fd
89
46
42
06
2a
8b
9e
eb
13
62
ad
49
5b
ab
37
d7
90
aa
4f
5e
c1
f0
bf
98
6a
5e
87
09
9a
35
c0
92
ad
b8
99
79
a9
f3
d9
d9
7e
df
73
d8
4d
03
f1
4f
a5
68
cb
62
06
8b
2c
6a
e7
c7
e7
af
af
fa
48
3e
b9
e2
f1
73
22
ee
df
ff
5d
45
76
39
e6
e7
b9
1c
b1
0b
05
a8
69
3d
bb
d5
df
ee
2a
02
be
61
86
ea
d9
60
d9
df
28
73
14
be
4a
d3
84
c9
52
ca
40
3a
dd
b9
1a
3b
11
dc
9a
c4
b7
ca
41
05
08
bc
18
48
fa
4c
42
02
88
21
71
d2
68
58
9b
04
ca
d7
0c
48
dc
e1
a5
0a
15
ef
6c
59
bd
ab
d8
14
61
1e
bd
2b
d1
9e
f2
33
3c
73
4b
06
42
6d
e6
dd
21
a9
18
64
08
2a
48
bf
01
17
d1
75
11
f1
31
1c
1e
ce
18
8c
3e
75
88
e0
a8
e3
67
df
99
e4
0d
76
63
c7
55
09
f2
ca
8d
fa
37
4c
71
80
31
b1
6b
4a
26
af
a0
e3
46
c4
7d
b6
7c
90
47
a5
20
12
52
e5
90
14
27
15
97
8a
4d
7b
50
19
48
68
e3
a5
29
3e
0c
b7
c3
67
de
e7
4e
54
58
81
8f
36
97
84
b1
da
9f
12
bd
8b
4a
4c
83
4f
06
4e
46
c8
3d
68
28
66
d1
b1
45
4e
95
e5
08
ea
60
e6
a6
ec
66
e4
65
df
b5
bd
5f
81
e4
3d
1b
c5
b8
b5
91
d0
6e
76
b6
d5
a2
8d
03
c4
d2
f8
f3
ee
13
5a
22
3c
60
74
9e
96
d8
fe
73
a9
a7
c8
2c
8a
c9
0a
45
79
bf
40
fa
ab
70
c3
49
68
34
97
e7
bd
50
c0
5a
9d
14
87
14
55
2a
ec
cd
8d
d4
b8
95
71
54
87
64
c6
87
2f
57
79
d9
4d
a5
bf
e9
23
40
20
5f
19
9e
cb
3d
95
36
33
69
ab
65
a4
fa
ae
0e
b3
6b
08
ba
54
27
7f
3d
cb
69
2e
43
d7
c7
43
05
09
ce
5e
c5
1b
10
75
c4
46
58
37
e0
05
81
57
e7
b4
07
a8
91
5c
0f
5b
22
73
94
b3
55
63
89
19
a8
35
44
a6
8d
eb
63
80
ed
a8
f8
c8
2d
a4
37
7f
db
77
12
92
a7
ab
b1
c2
33
4d
f6
2c
a0
64
33
c1
82
ca
18
6e
b0
2b
57
fe
dc
87
b3
f3
0f
92
ce
7b
33
40
d5
0d
4e
74
c7
9f
fe
47
bb
ce
86
e0
80
f0
20
e8
8b
51
4e
ad
3a
78
99
a0
41
a9
f4
5d
43
d1
2f
d2
5f
0a
57
f2
a0
45
28
89
0b
ea
44
e9
2c
bb
9d
32
67
c6
51
1c
71
67
7c
8c
02
73
27
04
ca
01
76
3a
e6
71
64
21
d7
04
f4
e5
28
d5
47
45
db
b9
f9
42
1f
9f
09
54
b9
6e
1b
0c
a2
2d
48
57
c4
5d
d9
a4
1a
da
64
98
4e
a4
72
cd
88
d1
63
ac
37
d2
3c
cd
db
a1
7c
ce
0f
f7
b4
33
43
b2
1c
65
2f
e2
4f
7a
e4
2d
cb
82
78
36
b9
08
95
81
07
aa
f4
c4
e7
b7
81
48
bc
dd
2a
c4
be
56
e7
06
bc
e0
38
b4
49
71
51
37
37
60
b1
b7
80
df
1e
d8
fd
5f
6d
20
01
5f
a3
78
67
3a
a0
54
ba
23
23
7d
f3
9f
71
99
dd
c5
62
11
44
f8
6b
47
6a
74
70
3e
96
04
9a
f5
bd
3c
d1
fa
ca
a4
08
85
80
2c
38
79
74
e3
f8
f6
ac
a9
c9
ec
34
36
78
ac
2e
4b
1a
65
30
92
fb
95
85
f9
99
61
b3
b2
e8
58
ac
5d
86
2f
e2
26
5e
44
17
95
41
0c
94
ec
b9
27
7f
08
5b
f7
01
93
4d
4b
c6
48
0b
3a
a1
25
5e
e6
59
d2
71
a4
ef
34
20
4d
f3
b2
36
82
01
6f
ce
dc
41
99
3d
ea
f3
d8
d6
19
93
01
a3
83
54
11
cd
cd
67
f7
cb
ea
68
b2
32
65
8b
f5
2e
52
aa
70
53
4b
3f
0c
0a
09
47
02
dc
3e
ea
80
3a
69
f5
68
56
6e
f1
95
c1
19
f1
9b
61
8a
61
1c
30
62
6a
e5
59
48
5b
3f
39
1f
cd
86
14
18
c8
8f
db
17
45
f2
d2
35
4d
9a
bf
f8
7f
86
32
ab
fc
a8
37
ae
a3
86
67
15
95
9a
cb
58
55
e9
00
74
76
84
88
da
3d
d2
a5
15
27
f1
74
d6
97
ec
a3
cd
70
07
cc
93
62
30
8c
e3
08
33
b7
c0
a6
51
14
83
77
b0
5c
7d
61
37
1c
51
90
71
f8
23
27
20
2f
46
e2
c3
ec
14
8e
0c
2c
38
89
82
80
e4
1b
77
43
70
fc
e3
5e
f8
8c
6e
05
96
43
e1
69
b1
2b
50
be
a9
6a
f6
6a
b5
bf
44
f9
2f
b1
82
53
bb
b4
c5
7a
d1
f2
91
9e
71
cb
61
57
1b
8e
b7
32
34
ee
f7
ac
74
e6
08
9e
2a
d9
80
1d
ea
a9
2e
36
fe
eb
68
82
f0
1c
4c
19
e9
f0
4a
c5
d6
37
d7
f2
47
64
1b
fc
f4
e1
b7
8c
c1
4b
03
66
6f
3f
cc
dc
df
f6
9c
9a
b3
f7
cc
48
7d
5c
d5
f6
33
ed
e2
8f
5a
e8
90
f7
e1
70
7d
f5
42
b4
8f
c1
d5
1a
54
f3
a5
1c
43
b3
a0
02
2d
42
f2
00
66
6a
7f
e0
eb
03
8e
ec
1b
7f
61
fe
8c
98
65
ee
8d
27
27
d0
27
19
b6
85
7b
11
99
3c
51
be
c8
3f
c4
dc
e5
c6
1f
92
f3
77
28
c3
3a
ff
86
d6
06
9c
ae
77
a2
97
17
75
d9
8d
69
db
3e
04
4c
13
2f
cf
56
f6
9a
c1
85
ad
04
dc
85
76
9f
ab
9a
11
a8
92
ae
68
5f
39
3c
91
e5
80
a5
9b
d6
81
33
a6
b7
a6
f1
d3
71
0e
42
13
90
03
ce
b4
20
d8
c9
f1
e2
00
d3
4a
d4
39
da
2b
29
6f
ed
b1
25
47
6e
0d
3a
6e
20
95
71
66
d8
7a
50
e3
b8
8c
51
b9
00
b8
06
3d
82
6d
04
d1
5a
9a
e4
6a
ec
cf
77
5a
0a
60
f3
95
ab
07
a5
d8
41
e1
ab
1e
c5
c2
3e
38
b4
9d
cd
ef
ad
89
de
31
b8
48
19
29
5d
98
9f
b7
35
f1
a8
73
37
16
a9
81
e9
cf
94
b8
19
91
93
da
f2
f4
74
6e
ce
79
9a
7a
0f
34
a7
10
34
33
e2
d0
ab
d7
d1
9a
95
23
60
7f
42
92
57
34
97
6d
18
a4
53
e8
e0
f9
5d
b6
1f
5f
2f
c0
ba
d3
6d
d3
b3
f4
b5
bb
a0
72
e2
a9
8a
bd
c1
54
94
de
fb
76
1d
34
fb
70
51
67
aa
e3
dd
ec
d0
33
3e
29
29
20
70
ae
a3
90
0e
86
5c
58
20
fb
44
5c
04
3a
83
58
99
47
bf
3a
e6
2d
95
f5
b6
70
e2
f4
c0
d4
6f
21
22
ca
25
47
7d
55
96
35
b8
e3
b6
34
09
80
28
4e
84
86
66
c9
84
5e
e2
bc
16
e8
b5
bb
0d
7a
11
bb
d6
41
c9
b4
22
b2
4a
e2
b5
1c
ac
eb
ed
94
e5
30
d8
e7
3a
52
50
a6
8c
0a
cc
76
e3
fb
b7
d8
84
b5
f0
06
55
07
f8
b4
e4
fd
93
44
0d
19
ac
1b
1b
51
ba
82
57
00
bf
fd
19
15
b5
ac
7e
0c
aa
08
31
34
ef
a8
92
0f
a8
f9
7a
16
3e
91
2e
34
3a
1d
48
07
a6
20
d5
da
e7
46
0c
34
7f
d5
67
6a
dc
94
2d
d9
4d
95
b4
b7
26
10
2d
c3
ac
91
09
8d
07
f6
c6
d8
77
08
05
5c
ef
16
1b
0e
81
56
a2
80
a7
df
77
98
69
c6
d0
d2
bb
7b
ff
69
72
61
79
bd
f0
b0
cc
6c
6d
51
24
63
73
47
6f
87
d6
a4
04
15
89
ee
fc
b6
c5
65
e4
54
15
ec
9a
bf
70
92
61
cc
56
39
16
8a
10
6c
27
80
8a
79
f0
0b
60
c1
1f
3e
35
bc
58
89
01
1b
ed
ee
9a
20
27
33
59
6e
8b
17
78
c9
1f
da
89
a3
01
7f
04
8d
01
39
d8
5e
ee
52
9d
74
25
49
0c
16
d1
4a
09
77
f5
52
29
75
c0
72
3e
04
9b
46
0a
43
08
7e
43
e4
ea
0a
4d
8a
ae
e2
37
e1
8b
b0
1e
a3
a2
0f
07
bf
99
2f
e5
22
aa
26
88
94
3d
a2
ee
73
2e
97
ef
05
63
0b
f2
b7
a1
a8
2b
13
37
c6
b7
d8
9b
94
b6
0e
3a
d9
68
9b
81
73
d9
7c
14
cb
e8
19
c9
fb
90
f4
ff
97
9b
95
e4
d1
85
fc
f4
d9
49
c9
93
a4
87
22
84
9f
27
a9
6b
f5
cb
d9
b2
1d
2d
23
4e
8f
3c
47
3d
a3
02
d6
9a
da
5f
40
0c
a0
d9
6c
06
99
23
c0
3f
a3
f4
09
ae
ab
ce
b2
c9
f5
cc
bb
b4
46
a5
03
7b
2e
f2
9e
e8
ed
cc
d8
e2
4d
22
ed
72
83
06
26
ef
c8
d8
af
20
d5
b8
7a
6c
c3
ab
3f
23
97
3e
11
cc
cd
c2
20
de
9d
70
fe
53
15
42
71
08
ff
52
8b
a3
ad
ea
80
c8
7d
30
d0
a1
24
d2
c9
6f
47
6c
59
81
43
43
34
65
17
a9
1c
33
d8
9a
9f
6c
4b
df
86
83
21
03
d6
1c
d1
db
45
bc
0c
d1
df
0d
b1
f4
86
4c
13
21
f8
7b
4a
68
eb
1e
fe
a2
e2
71
87
37
1d
13
da
e3
37
e6
0f
c2
fa
69
87
c1
16
11
58
a7
c7
e8
90
e3
9e
51
a1
69
fd
87
2a
80
40
25
5d
d7
e5
1f
3d
21
40
ce
f1
3d
1b
c0
92
ca
46
4f
c2
0a
63
87
ed
e6
d8
14
2b
13
77
53
01
51
0f
48
0f
28
80
9b
4b
51
7a
86
44
4b
3f
61
f6
b6
c4
0b
6e
f2
a7
a3
0b
29
44
49
31
5e
09
36
24
72
f2
04
fd
79
3e
9f
b5
f8
5c
a6
32
6f
d5
ff
f3
bd
c3
d9
48
c7
08
57
21
7b
d0
dc
0c
17
be
de
fb
5a
b5
b0
4e
04
8c
63
73
c7
7d
03
06
1e
98
df
3b
94
cb
d7
c1
66
fe
d9
00
08
bf
21
88
8c
c5
0c
95
37
15
84
18
19
a5
d3
ba
73
53
c8
c7
dc
ec
69
86
00
5b
38
d4
c3
8d
a3
a3
54
26
e4
e6
1c
6b
e8
07
bd
99
a3
64
af
62
20
89
14
45
5b
d5
d9
8a
31
db
6e
84
68
43
f9
9a
4e
6d
f1
92
30
62
c7
38
17
91
f7
e6
51
7e
2d
7f
bb
98
24
66
25
a1
8e
0c
7f
a2
b9
f8
a9
27
ff
66
26
b9
fe
c6
a2
6d
01
59
10
d4
3d
a0
5b
68
0a
5a
93
0a
e0
3b
01
66
2c
d5
ea
f3
c4
7a
84
b2
be
7c
e9
51
e0
eb
4f
38
ff
d9
89
9e
b7
40
a0
9d
37
b7
a1
e9
01
02
4a
b1
b1
8e
49
8e
35
2f
d0
0e
d7
cd
2c
0c
1b
c7
4d
b7
28
68
58
a2
7f
d1
13
08
1f
47
bc
52
52
8b
b2
9b
9e
c0
96
75
5a
9b
b3
12
53
c5
d4
4e
75
21
f0
ed
f6
dc
f1
9c
c0
03
b2
5f
09
9b
30
76
e9
29
67
9a
2c
6b
87
50
c7
53
93
af
54
7c
d5
44
4a
d9
a5
75
8f
dd
98
f1
6d
03
13
56
ed
83
af
6f
53
d5
e0
53
86
0c
1c
5c
df
19
1b
e0
07
0d
31
16
20
f0
d2
16
b4
58
8d
76
9c
ff
68
65
d8
13
88
ef
a1
13
a6
3e
5f
44
22
64
ba
85
8d
45
8e
64
91
04
8e
6e
38
ae
11
96
eb
2b
84
01
4b
e6
cb
40
87
f5
b6
96
84
9b
57
e8
02
a2
87
fd
58
4e
e9
09
e1
50
88
b0
e8
45
09
5d
01
55
ab
9e
11
73
a2
da
c9
ff
94
e2
86
5e
f4
a2
6e
d2
1e
da
ff
83
e1
7e
4f
5e
a0
29
b2
c8
14
1e
98
e2
d5
e1
c9
cc
58
a7
f1
38
9c
03
ec
f3
5e
17
b3
67
71
f8
c4
46
d2
7a
cc
60
3f
67
c1
2d
c2
86
95
09
c0
4a
02
2e
8d
f4
0a
bd
42
8d
c6
09
90
a9
55
4f
3e
2a
ca
71
84
b7
10
25
9a
d9
f9
f9
08
a8
35
0f
83
6c
7d
48
3e
cc
81
eb
83
30
48
55
21
78
2a
c5
52
e5
79
62
c1
d5
0d
e9
6b
55
b0
97
35
27
e4
c1
b7
7d
8c
cd
7e
65
98
83
1a
a3
89
68
e8
4e
7d
c8
93
f4
36
a4
bb
74
57
1d
57
a8
d3
13
a8
3f
93
1f
da
cb
41
a1
05
4e
4d
48
c1
93
0e
fb
b0
e7
00
bc
a9
4b
be
7f
67
a8
e3
b8
08
b8
5a
d6
79
11
c3
eb
39
6f
17
6f
fa
5b
d8
5a
22
41
cd
eb
a5
b1
dc
cf
6e
5b
68
83
8e
b1
df
5f
d2
7c
b7
a1
03
b9
e9
ac
be
38
7f
98
3b
f3
9f
5b
12
22
f6
62
2a
cf
08
f9
f9
bd
f0
b6
17
07
67
00
dc
c2
a8
a7
2a
f8
0e
3b
88
8e
10
25
3a
bd
e0
de
53
f1
5c
11
c4
43
a6
a5
e4
91
2f
20
42
0a
da
6a
9b
77
91
4f
b8
22
8a
43
75
f4
55
70
e3
8b
90
84
3c
c6
1a
bd
2f
28
81
5d
82
07
6d
0c
f1
da
a4
30
fc
98
28
33
96
b7
95
b3
6f
db
4e
4c
26
e4
aa
ff
b2
6c
2a
b0
54
20
40
f9
f4
7d
70
54
1c
17
e6
6c
55
57
a6
42
bb
76
34
ab
e1
a8
12
c1
0f
3b
43
87
ee
91
5d
98
0f
79
6c
3f
39
6f
96
87
4a
c5
c1
c6
05
22
e7
11
b9
41
06
13
31
e7
65
f4
74
37
72
35
3a
20
aa
53
c5
99
59
5d
d1
2e
0a
3e
7e
26
11
92
a3
b3
30
a3
19
78
99
a4
54
36
61
81
86
fe
23
e0
13
d1
9c
2a
ea
7d
b5
8e
59
bb
80
2a
77
94
80
88
94
c0
7d
a1
a3
eb
c2
8b
74
e6
2c
bd
9d
6b
0f
0f
0b
42
c0
10
e8
47
64
86
55
cd
0e
47
78
60
7b
b8
a0
2a
7f
43
c5
da
21
d6
9e
df
89
05
74
19
1d
c3
0d
7a
79
f3
90
bd
3e
79
4c
78
d2
00
91
37
71
08
4c
41
f9
d4
cb
51
39
b3
ae
53
b7
b6
29
b3
d9
66
c4
c4
a3
30
8d
07
52
7b
65
a5
b3
2a
21
8a
90
17
af
c8
ed
57
a8
ce
d8
60
52
df
0c
b4
2a
4f
54
34
b8
9c
96
89
0c
08
38
83
6d
b4
a6
18
ef
56
f3
03
66
b7
1d
d8
b6
75
c7
6d
58
db
24
ad
f2
22
8f
6e
8d
e8
c6
de
23
67
da
ce
d6
93
97
03
b0
be
8a
6f
0f
3f
ed
66
d1
b8
06
df
c3
6d
93
4e
93
60
11
59
c5
68
f6
7f
2c
bd
0d
a7
3c
c1
59
da
01
8b
3d
8a
da
4e
5a
d5
80
4c
98
91
99
b3
05
3a
d7
a1
23
fd
27
18
8c
25
ca
74
15
07
91
fc
9c
9a
0d
7e
b5
72
da
11
9d
10
6f
a5
72
0a
52
68
b0
34
d4
24
7b
1b
ee
36
09
59
8f
b1
aa
db
a6
aa
a4
cc
92
1b
56
73
a0
70
d7
2a
45
ee
39
d6
51
4a
46
cf
54
00
71
51
28
79
6c
78
8f
7d
7b
f5
a8
11
22
5d
1c
6b
48
c4
e4
2f
eb
eb
09
93
70
d2
35
1b
8c
a5
1a
3a
39
9d
e1
ae
73
d8
09
b1
d5
01
07
b3
02
02
37
3e
94
24
2a
ea
95
2d
d1
52
f9
74
7b
52
d4
75
61
a2
d0
84
0f
f3
7b
7d
38
ed
7c
a8
b8
65
e6
c0
e9
51
fd
98
a1
40
81
bd
f4
b5
f3
97
fe
57
54
ad
f9
52
36
0c
de
2c
f0
26
53
02
f0
06
77
1b
d3
56
cf
26
57
7b
3b
10
40
66
e3
d5
94
04
d7
ed
2d
9f
11
60
2c
2d
14
e1
d6
3f
ea
97
d2
1b
af
41
96
c3
4f
3e
68
25
d8
08
b0
61
e5
36
c2
a4
69
ca
cf
e1
42
1a
1f
f7
00
c7
ef
0a
b3
03
d8
46
9c
90
4a
c2
d3
cd
3b
82
fa
a3
f3
2d
14
34
cb
4e
f0
35
97
62
01
f8
02
78
1b
2a
67
4f
e4
7c
26
26
c5
63
a0
1d
45
9a
f0
49
73
93
d9
09
78
a7
e9
0a
54
57
af
c7
00
35
28
14
9f
75
70
4f
d2
04
79
08
a5
1a
6f
67
5f
e7
83
a9
72
46
1d
63
5e
6c
69
75
a7
c5
0e
90
1a
38
24
45
b8
c6
73
a0
ec
64
d8
20
70
91
f4
94
46
ec
b2
a8
ca
8e
ae
28
e7
2d
38
8c
dc
2a
0f
7d
aa
41
7a
e1
4a
56
fa
c5
61
2c
9d
c4
31
9e
64
c3
77
8f
52
f2
07
72
a1
48
c0
40
0c
8e
f9
84
1f
0e
01
fa
a1
8d
6b
4e
c3
91
31
1c
a1
7a
66
26
a9
3e
3a
aa
46
01
d2
4b
2f
2a
f0
40
9c
8c
fb
ca
12
08
81
b5
8f
ca
3a
d3
6c
86
c7
31
bc
ba
02
d5
4b
44
21
c8
c0
b6
fb
c7
ae
1e
42
bb
62
95
a4
0e
d4
2e
02
a2
73
7e
c3
50
e6
e8
29
d2
2e
4c
d9
da
45
5c
e0
74
6a
38
48
16
5c
62
2b
fd
ce
31
14
b4
0b
55
3b
f6
65
f9
62
08
1a
98
1d
06
53
f4
7c
d9
ec
f2
1f
0e
9c
cf
d1
7f
d7
03
db
df
7c
58
a1
0d
c8
71
d0
2c
19
22
19
a2
25
33
0c
ff
bf
4a
20
31
21
bc
d2
d9
e6
13
8e
c2
e3
1d
e3
1e
be
9a
d3
3a
3c
e5
d1
b3
92
0e
1c
ac
46
bd
d3
26
14
1c
df
74
b8
97
12
3a
6b
11
36
5c
f9
d6
aa
4b
37
63
fe
b5
cd
0a
b1
f3
21
c2
f4
d2
1e
78
59
de
9a
6d
a2
fa
fb
e3
90
41
75
5f
04
2d
ad
05
ac
50
4c
90
79
2f
61
c6
ba
8a
83
c6
ec
88
58
f7
ff
06
78
3c
0f
93
27
04
69
7e
ca
21
7f
5c
98
ad
ee
29
12
52
3a
5e
c4
ee
d1
32
fc
54
96
fa
2a
dd
8b
2a
9f
07
71
11
92
7d
d0
32
23
cc
fa
51
6e
9c
4f
15
f6
36
93
ad
b7
83
56
83
c3
12
29
2c
75
5c
13
73
04
9c
9c
64
f4
c7
1b
d0
3f
0e
1c
f2
4e
21
10
a6
27
50
d2
71
05
98
6f
6a
48
44
20
0c
61
5f
c7
70
7d
60
af
86
0d
db
fb
a6
ca
f8
5c
04
a3
d5
5f
79
d3
74
47
90
8d
a1
7a
6c
3a
b7
58
5e
bc
85
93
9f
a5
9e
48
60
6c
ec
87
84
16
c0
37
cf
b9
2b
e9
01
89
7f
43
cc
10
f1
60
fb
e3
ee
1a
95
72
22
55
26
b4
87
2b
5a
50
08
ac
72
7b
0b
d0
d9
af
9b
9b
4d
05
62
31
f9
b2
da
8d
52
1d
ed
b4
c8
73
d2
21
a4
e2
d2
cf
4b
03
ff
5b
69
19
8f
b4
fb
ab
35
e3
e8
c2
4e
6a
14
be
60
a2
96
4b
e7
b9
eb
4f
94
8c
93
63
26
e9
26
e7
86
a0
ff
f4
27
a4
48
87
95
c0
d0
41
df
fe
85
b8
15
9b
54
4f
02
71
e2
a9
2b
c5
69
11
f6
ec
00
9d
b1
ed
cf
a2
f3
eb
81
f0
87
1c
e1
94
b1
9c
6b
c7
40
ff
dc
10
25
03
6d
c1
4c
b9
a8
9d
3f
e8
f8
b8
25
74
fa
44
33
01
5b
49
3e
c3
9e
ab
36
8e
25
73
6b
c7
51
ad
76
59
f1
48
f7
f5
42
9c
b0
36
af
37
1b
5d
6f
2a
66
cb
e9
3e
9a
0c
2e
63
ce
c7
32
2c
66
f4
4c
e1
3e
a2
67
65
75
ca
7d
d4
a3
19
c9
85
99
c7
52
a4
57
c5
a3
3b
ab
9a
23
5d
71
c5
1f
96
e4
ec
34
ae
e0
27
5d
68
9d
9a
ec
2f
0e
ef
5a
32
a2
c9
d8
07
cc
a3
1c
97
da
11
00
f5
5a
06
df
15
8f
5c
fd
d2
4f
cf
40
09
46
3a
84
57
e4
99
fb
be
92
47
53
f7
ea
a8
2a
ac
4b
32
d1
0f
0d
f2
0d
fe
53
92
2a
18
2a
60
ea
22
20
b7
32
7f
08
c6
09
6a
2f
c1
18
a5
d6
79
64
b2
61
a8
fd
cd
fa
4f
3c
3a
93
3c
ee
a3
e5
d8
08
b8
1d
76
ca
91
78
9f
1f
06
fd
9e
c6
95
47
fa
51
48
cc
dc
19
1a
f4
f6
82
96
74
b6
d2
21
36
07
10
88
d1
47
3f
02
81
b8
44
c0
79
bf
b4
9c
f9
6e
51
10
a8
81
1f
46
01
6d
d6
c7
e7
e7
18
fa
b5
e2
5c
76
6c
a2
98
27
88
df
35
a9
d2
38
b4
d8
74
15
02
cf
29
c2
ec
f4
6f
d9
b0
83
f9
58
9f
9b
da
35
35
c3
d7
60
c1
67
22
4f
a4
e4
00
9a
d7
dd
35
0f
8b
47
47
ad
14
d5
e4
3b
3d
c0
e0
75
00
7a
fb
83
4c
51
5f
16
07
cb
9c
54
f5
3a
c5
bc
39
a9
da
b0
44
5c
10
dd
1b
43
43
12
89
2e
a7
14
8f
27
b6
51
28
3d
68
d1
7c
03
83
ea
f7
7b
4e
f9
6d
e4
6f
db
c6
6d
e0
ed
d6
5c
e2
63
23
b1
1d
df
02
7f
aa
e4
92
29
a7
9f
43
d0
9f
bb
d0
aa
1f
27
ba
f8
b4
9d
5e
6e
ea
58
ae
a2
af
69
41
78
c2
42
3f
ad
2d
06
7e
97
92
71
72
30
6d
79
e1
94
d3
2c
73
0d
5f
26
ca
b1
04
00
6b
fe
60
94
f2
11
6b
30
5f
b6
8c
38
36
9f
ab
a1
2b
74
52
e3
53
02
b3
62
f2
b8
71
70
9f
9d
bf
cf
b6
5d
68
e5
51
69
6e
a6
32
de
9f
af
3e
3b
f7
f6
3d
0d
bf
4b
b9
ba
f7
c1
c0
0a
7a
67
8a
42
fe
65
72
e8
02
1a
b8
8b
13
9b
d2
6d
a6
e3
88
06
5e
a9
91
3c
09
86
26
3f
17
6f
64
69
b4
12
28
e1
7a
ef
00
69
a6
fe
42
d5
be
fe
be
c8
91
35
52
36
9d
ae
68
3a
61
6c
db
9d
22
a8
f2
fb
43
f1
18
3d
3a
87
26
3e
bc
4f
ed
24
7a
ca
29
ca
25
95
91
38
6b
93
f3
56
c5
6a
55
1d
ee
39
f8
41
56
0d
f2
5a
11
00
0c
39
a0
2c
a9
8d
72
c4
a9
14
df
52
07
bb
ad
99
cf
90
32
b0
b3
cf
a3
92
a9
1b
66
57
ef
08
a2
98
dc
c6
12
25
d2
f9
2b
bf
6c
99
43
db
db
27
da
5f
2f
00
7e
75
78
4b
36
bd
2d
12
38
5e
0c
cb
ca
7b
5c
86
4c
a3
df
bb
e4
af
c5
21
e5
1a
8f
74
86
f6
b0
9c
5c
8c
00
cf
f6
5c
80
5f
65
af
6a
07
4b
ac
e6
55
ca
28
0a
d8
82
f4
1b
94
0c
24
b0
38
05
86
71
09
c0
e9
09
ac
29
8f
16
8d
17
4e
ea
c8
ec
d5
53
91
92
8d
da
c2
63
90
f9
e0
36
72
0b
8c
5c
66
e6
a0
51
6b
7f
e9
41
44
03
ad
2e
bc
86
41
e4
79
09
4f
3f
98
e3
68
f2
cf
46
36
f9
68
76
3a
6e
e1
ea
cf
21
e7
25
96
83
c4
85
f2
05
2a
a6
ca
81
c6
3d
79
a1
7a
ba
31
00
cf
ce
97
82
ed
a0
3b
ae
c8
40
75
a2
75
d7
db
5f
9d
dc
d8
2a
9d
fc
43
6e
72
5c
c9
6a
a9
ae
70
ef
c0
e4
83
16
95
43
29
a7
7b
b7
e6
09
ad
e5
ef
90
b2
38
23
e0
71
15
b6
4e
e2
55
35
78
76
a2
e5
5d
01
58
8b
97
44
ab
2c
a0
33
4a
d2
d5
1d
4b
50
7a
8b
2f
ef
84
f1
03
ed
24
85
37
73
a7
8a
ff
c2
b5
b1
f0
9c
9e
e5
a6
4b
e7
3a
2a
05
d9
39
c9
34
c4
6f
a5
80
11
11
f1
32
92
a8
37
dc
5d
55
d1
07
d6
bc
cf
f1
3e
e2
b4
0d
4f
60
bb
34
45
f4
01
c4
6a
7f
2d
f8
eb
ab
5e
e8
1a
ee
fb
f1
e2
1c
6f
03
01
af
90
19
68
08
c1
48
4a
61
e1
78
2e
74
26
3b
22
38
c1
82
8d
7d
18
14
17
b4
5b
f3
3b
27
db
77
8a
c9
b3
d7
71
b4
de
e6
47
35
3a
9d
ea
0f
9c
8c
af
4e
68
5c
28
b6
6a
6e
b1
3b
b4
18
6d
1e
64
69
02
c0
db
0a
19
61
42
f7
de
28
88
88
f6
69
07
c0
7e
1a
ab
17
b4
2e
14
36
46
1e
d8
e3
9c
c3
b4
1a
c3
87
03
e3
be
6d
8d
d6
18
53
38
f8
ab
c0
8c
60
db
43
44
3d
e8
05
45
1e
33
c8
fa
19
63
63
8d
77
af
d0
dd
04
e6
07
47
b1
c8
6c
d4
e5
85
03
da
d7
67
95
07
a5
c5
67
05
aa
9f
3b
62
ac
03
92
55
be
04
e5
1b
2e
bd
16
34
f4
7c
d7
bc
ba
d0
2c
6c
9d
c7
60
7f
93
88
74
94
85
ae
02
3f
93
2b
eb
47
1d
16
14
e3
a6
04
84
47
f4
d0
31
37
ba
76
a9
a5
e7
5f
f3
c3
35
18
45
29
11
04
92
db
0e
20
7b
bc
89
e0
3f
e1
36
75
c6
ab
eb
59
56
72
cf
45
4e
c8
a1
1c
ad
02
01
22
cd
04
9d
8b
b6
d0
aa
ef
ca
ee
a3
05
04
66
c3
55
22
fe
f8
d2
3f
38
86
35
a6
5a
67
6f
f1
ce
93
b3
d3
5c
f8
4f
f6
33
aa
fd
e8
62
7c
69
03
e7
47
bf
a5
f7
b7
44
64
b6
cd
24
ee
59
97
f8
f7
fc
82
f0
d0
39
59
77
0c
5c
46
91
63
9f
10
fb
e1
22
26
23
ab
2b
88
88
66
dd
9c
82
12
bc
b4
08
c7
04
92
21
7f
db
6f
0d
b4
57
a9
b3
5e
35
a9
3a
29
b5
86
11
c5
cc
2f
17
44
91
10
7c
b7
7e
1b
d8
41
81
57
01
b4
aa
25
fa
2f
0f
51
7a
64
16
35
99
99
af
cf
f4
6e
61
f3
81
a6
29
6b
a5
11
e6
5b
b1
c1
cd
80
a6
28
a9
97
e5
e6
29
f0
a2
7e
96
7b
a1
19
0a
49
ca
3c
9f
c3
ee
68
8f
32
96
09
f0
27
6f
23
a1
4f
1e
3b
86
46
8a
fa
07
22
09
78
b6
fe
44
76
09
a8
c3
ae
8e
23
25
ce
37
3a
cc
f2
ec
08
73
05
3d
65
b7
07
ab
b2
b2
1a
d9
ea
09
8a
d5
09
0e
32
b9
55
60
c8
f7
7b
78
99
65
24
07
0d
fe
e0
42
5a
c6
58
1f
20
3b
6f
98
6e
eb
df
19
f7
1d
d5
43
d1
7a
c2
c7
40
97
d4
ae
92
ca
36
e8
21
98
6c
b1
13
a9
71
93
b0
00
88
b1
a2
53
8b
f4
a7
bf
1a
72
f3
fa
28
d1
3e
2d
7e
d1
8b
55
ea
7b
25
c3
fa
e6
a4
86
f4
fd
20
33
6e
95
5a
41
27
b2
20
cc
ce
75
e8
4f
e7
56
6e
5e
36
b0
d9
99
8d
d7
66
35
25
41
3c
83
3c
71
6d
27
cc
dc
87
d8
48
c8
b9
48
22
66
8a
89
b8
63
0d
99
6e
cc
c8
47
72
5a
aa
af
71
07
93
9a
c2
f3
c9
8f
26
e7
91
16
77
63
b4
7e
c1
e8
46
9c
da
c4
56
ab
b8
93
0f
66
be
d4
2a
3d
72
e3
f7
83
bd
7a
b4
59
3d
82
13
02
85
21
f3
c3
17
9f
b4
46
bd
92
dd
e7
ee
14
ee
a7
cf
b1
6a
1d
3c
84
d5
07
ff
5d
5f
bd
73
f6
9d
da
b4
8a
39
c0
a0
18
6e
57
cc
0a
e7
d0
97
d5
3e
f0
db
09
a5
fb
2a
3d
cc
5e
aa
fd
87
75
bb
58
e4
ff
fa
ea
ec
58
bf
77
8b
13
ac
bc
7b
82
bc
21
44
94
85
72
0c
f9
00
26
32
5c
89
75
a3
14
a1
1c
91
86
08
16
97
55
d2
df
12
3d
2d
78
29
50
df
0b
70
ae
14
6e
b7
af
61
6e
c6
7b
a0
b7
4a
b1
a4
03
c3
ee
d7
13
66
4a
36
cf
62
61
6d
aa
69
fe
66
00
f1
45
f5
0f
f3
7c
f7
8b
ee
87
37
6a
15
fc
6d
2d
5b
35
54
13
b7
48
90
88
94
e9
a5
6a
7a
ae
04
8e
6b
65
da
78
b5
2a
d4
84
12
ac
99
63
2c
9c
d6
b9
6a
e5
65
5e
f8
6f
04
70
8c
24
ce
08
31
df
bf
0e
3a
8d
24
9f
b0
ff
8f
93
08
b9
05
d8
91
39
95
4b
b3
db
65
fd
e9
fd
2b
28
18
57
66
a3
dc
8e
ba
54
d2
d0
f1
97
5e
4f
47
60
76
93
81
d6
8a
c2
ff
b8
c8
bf
d0
d7
59
08
9f
eb
fc
8f
83
b1
ee
04
30
6e
1e
80
71
dc
c3
1d
ec
dc
3c
b5
d6
f2
e7
7a
55
df
3e
b3
24
b8
a7
ed
fa
6f
0f
1e
b7
3b
c5
20
55
f6
3a
f2
cb
2c
41
67
d5
ad
b7
c3
f7
e1
be
ac
10
47
f3
14
9c
b4
43
c8
3c
3e
ec
64
2a
75
fd
b3
c9
c6
8c
53
d6
67
91
cb
54
10
05
0c
14
05
83
48
7f
95
6e
76
16
41
31
65
d9
c9
e5
19
72
34
0b
15
e9
ab
30
8f
b0
75
bc
2e
3c
74
b5
e7
cf
c0
26
32
d3
e5
eb
97
8e
89
ef
9e
dc
42
3f
f7
f6
55
8c
05
38
64
fd
a5
09
24
3e
24
30
04
26
b8
33
c3
ce
6e
39
68
f8
3f
cb
41
1d
95
2a
6a
39
d5
b4
59
71
0f
63
e5
e5
71
f5
51
44
f3
66
51
e8
3b
ac
e6
1e
72
a5
a6
3e
94
ea
31
7c
5c
b9
e1
30
0a
00
a9
63
91
06
57
49
c0
2c
d5
ae
6e
5c
27
36
1e
33
ec
fb
5c
92
c3
4e
d8
99
83
3c
8d
f6
37
4a
2e
30
b1
1d
e1
7b
b1
ef
25
24
07
f2
0a
89
71
21
7b
31
c9
0c
e1
c6
81
c3
42
2d
2f
9a
3f
21
f8
19
f8
8b
b5
4d
19
b9
ad
41
8e
83
ff
cf
5b
54
a3
5b
34
36
36
f6
d1
4c
87
bc
a2
ac
d4
63
65
0c
7d
cf
8d
d0
1a
50
1c
5a
89
72
df
a7
26
52
df
50
30
db
79
9f
60
5c
90
f7
39
d8
60
49
72
02
e6
85
c9
0f
59
59
30
49
17
3a
78
47
85
dd
20
0f
bc
1b
d1
a8
8b
a7
47
73
0a
18
29
75
16
05
45
60
2d
7f
63
0a
07
39
9a
20
c5
ca
58
eb
5b
f3
b8
f7
de
1a
12
84
ec
41
4f
f0
f3
e9
26
93
e7
14
73
fd
d0
f3
e0
e0
10
c4
cb
59
ea
e8
d2
61
8e
53
6e
2f
60
9b
5c
6a
a9
dc
db
6a
f9
af
d9
0c
d6
0e
6e
8b
38
85
d2
88
05
36
91
ff
1c
5f
4b
0e
85
de
4e
90
e0
15
60
cd
6d
a5
a0
07
a6
57
74
0c
7b
6e
29
d0
b6
44
09
8e
0d
47
c8
c3
af
80
11
8b
ad
49
22
0d
1b
fa
63
bd
01
ed
8c
25
36
99
08
86
30
e5
2a
5e
96
14
b9
8c
97
7c
08
f7
6f
cb
d3
94
27
03
b9
81
77
10
d6
af
0c
8a
ac
c3
8b
3c
a1
4d
7a
c5
40
70
3e
b2
0d
35
b8
e8
bc
a3
16
06
85
67
f0
30
5a
17
97
0a
7f
ba
0d
0e
41
52
0a
89
6b
22
15
6d
c6
36
b5
e8
29
5d
2d
e2
87
02
37
16
40
0f
5d
fa
6a
77
55
56
ab
0b
4d
ca
ae
40
84
02
27
6f
9d
59
46
28
12
3c
d5
1a
2c
44
33
c1
25
a0
42
59
5b
a1
16
e2
75
43
57
01
03
71
81
3b
5b
6c
5c
fe
be
1d
03
fc
0f
ec
95
20
77
7f
fc
80
56
cf
26
72
2c
0e
09
83
86
48
c2
9a
af
a8
2b
b0
6f
2a
3c
4e
e7
94
ea
00
f6
2d
59
9c
ce
20
b1
4a
4d
15
ce
48
20
90
48
7d
08
20
e7
2c
d9
7d
f7
f2
ba
fe
73
6a
7a
c1
5b
03
73
30
c7
06
4f
6b
4b
33
72
e6
0e
e2
f7
3a
02
ca
3f
0c
87
8c
81
50
c9
64
d5
d6
eb
13
59
b3
06
22
60
64
07
1a
da
5e
43
2d
1c
db
67
ae
4f
96
0e
08
46
4a
84
37
27
ff
bc
55
c7
1d
fc
ad
05
6f
c7
69
8a
12
db
59
70
0d
d0
5b
6b
d5
6f
56
93
8d
ce
b7
2d
af
1f
a1
8b
25
37
ab
53
30
05
82
e0
5f
a9
cd
d6
99
8d
cd
02
9f
0d
c3
a8
25
f7
46
6a
b6
76
e4
09
af
85
26
f2
6b
13
84
0d
5d
bc
32
4d
10
aa
74
7d
08
c9
8e
46
13
16
86
df
79
93
95
26
0b
24
ad
ba
b9
0f
aa
97
fd
35
b5
9e
13
4c
84
ae
b5
f9
f8
ff
45
23
ae
db
e0
71
43
7d
3a
02
57
d6
05
c4
53
0d
ab
12
7c
38
a9
e5
d9
dd
eb
7f
36
e5
b1
86
2f
a7
6d
36
33
5b
99
f7
c0
71
82
e2
d3
9f
17
90
9d
97
10
43
95
48
60
c0
d5
69
7a
a3
fd
41
10
9e
17
bd
c5
88
d5
0e
61
1a
ed
6d
9d
03
b4
70
07
75
63
9b
8a
0e
75
c8
91
f7
94
aa
2a
b5
cb
07
b1
b8
17
a5
ab
00
88
b2
bd
eb
01
9c
f5
72
4f
cf
66
21
93
17
4a
44
b4
60
b3
fd
89
de
f6
bb
60
d4
29
1d
7d
b5
c4
88
37
93
7c
26
af
a2
18
f4
11
1f
e0
bc
95
30
1f
33
0e
55
64
69
7b
02
50
87
43
26
3b
5d
13
72
70
9b
02
b3
12
8c
71
10
46
ab
cf
d9
df
a6
79
be
81
cf
08
10
cf
0e
58
b3
46
7a
6c
73
07
d5
c9
b6
be
92
11
b6
be
ad
ac
08
bf
ef
da
22
0a
a4
f4
42
56
e0
a9
a6
7f
58
9e
35
8e
11
16
a0
3f
85
c4
d5
1b
e5
36
06
c7
ca
17
10
9b
89
22
6d
33
13
d1
bc
0e
c0
0c
f3
f3
3a
ea
84
c1
07
a5
b8
24
55
d2
dc
ed
ed
f0
a8
0d
d9
7a
8d
28
4a
44
52
03
1c
c2
b4
ed
de
df
87
28
b6
83
fd
54
85
7b
8d
a0
32
9d
c7
23
e1
58
d0
91
70
fe
d7
aa
86
7b
6e
54
99
07
0c
07
2a
b3
3e
82
3e
88
ac
12
32
d9
84
98
0f
57
53
fe
ac
7f
8c
98
ba
e0
20
c9
b8
11
b6
f7
7c
d5
6f
ec
0e
61
ea
de
02
74
d2
23
0f
2a
f4
a5
e0
26
1a
0f
e0
9d
7d
82
6a
bd
c8
89
62
7b
c6
c0
30
1f
8a
d0
49
b8
0e
ef
7b
6a
1c
d6
f9
0d
5b
ed
a9
17
13
3f
45
7a
46
38
92
d0
8c
9d
e8
7a
ae
b3
22
51
24
d4
68
ca
3b
84
40
f6
7d
da
81
c9
b8
1f
31
63
fa
4f
e8
bd
da
62
24
a6
07
2f
63
8b
1e
bf
48
de
9f
7a
38
93
24
da
55
b0
d3
b3
d7
6e
9d
c7
e3
4f
60
07
cb
3a
ce
c5
6b
de
3e
40
fb
0d
ed
21
67
8b
3e
97
70
83
51
e1
8e
68
68
aa
8c
60
75
ef
ed
68
c1
3b
29
62
f7
62
f4
da
ea
07
14
e2
ef
d5
15
6f
fa
d0
fd
f5
bf
ee
d1
21
85
e7
4f
2a
62
60
0a
78
0e
5d
9a
55
15
8a
ad
8a
55
39
ee
7d
d5
e2
c3
c0
30
ec
27
ba
c5
d8
58
cb
7a
dd
09
ff
e1
50
5b
7b
18
26
9f
78
53
37
bc
83
6c
b2
6f
aa
88
4d
18
23
20
0c
3f
ef
e1
aa
54
7a
08
8d
7a
59
d4
cb
94
36
6c
67
de
4e
a6
38
80
8a
11
90
90
93
fa
2e
7f
6e
f3
00
5e
3d
01
8a
e3
84
75
b2
3c
40
41
b4
ae
e2
d8
c6
49
ea
e9
9b
37
05
40
41
13
5e
8a
7a
a0
09
c7
90
88
91
a8
75
f1
cc
44
38
6c
54
d4
06
cb
7c
ab
6e
2c
54
20
1f
6b
18
12
98
72
d2
12
59
64
4d
1f
a5
82
32
ed
85
e1
7f
56
7f
1e
b5
b6
c8
26
ac
7d
82
c0
10
64
b3
ea
9a
2f
71
f1
3b
f9
c8
94
f4
eb
c0
43
93
ec
a2
0a
b6
36
92
be
bf
e0
c9
93
5e
cc
01
bd
70
9e
d3
e4
1f
c7
60
5e
aa
a2
61
6f
07
c0
62
d0
fc
44
cf
e1
ca
ac
25
15
a6
38
50
84
f6
d8
98
02
a4
a7
5c
10
fb
a5
54
09
9d
f7
cd
51
19
be
d6
08
aa
16
47
c5
33
2b
ec
6f
ce
67
e1
e9
42
41
9c
87
1b
a3
27
22
6e
02
c9
bb
40
01
ad
9e
e1
f5
3a
be
70
e8
23
05
7f
08
6f
fc
16
c6
be
78
df
a8
e7
ac
ec
5c
46
0b
05
ee
73
68
60
e6
80
f0
c0
39
5b
35
84
87
40
00
75
e8
2d
fb
2d
8b
9c
25
a0
35
73
00
ee
6f
7f
fa
d6
46
de
da
26
ec
a5
5b
42
d4
bb
e3
ae
be
6e
60
18
86
d2
1a
12
9c
9c
32
56
bd
9a
ae
9c
75
58
99
5e
84
eb
d4
2c
3c
67
d4
e6
41
f3
4f
23
f9
f3
0e
38
1e
13
99
d9
ba
54
6c
07
16
10
39
90
2e
63
a1
56
c8
0b
2c
ba
11
51
4c
02
87
70
a8
83
5f
e3
18
37
d3
21
0a
61
6e
eb
d5
47
30
5e
66
05
ec
a0
92
0b
85
80
d7
c3
cc
e6
85
58
2c
28
24
c2
11
e3
34
a0
79
42
36
5c
70
da
2f
76
44
5e
da
c0
02
bd
3f
9b
de
97
6a
aa
f6
22
fd
f2
6a
dc
20
99
fe
05
81
70
6a
b5
0f
69
23
21
8e
71
13
75
32
6b
bf
a0
e6
88
5b
1b
a6
9a
38
11
0d
c2
3d
16
9f
83
78
41
4f
a5
12
73
1a
68
c6
d7
b4
d2
22
60
d4
a8
31
8a
7e
70
d8
50
ee
58
dc
aa
58
af
a6
83
81
5c
04
94
93
1c
58
73
f0
e8
aa
6f
b0
46
2e
8f
03
ec
f7
df
ed
05
e5
fb
62
c9
ca
17
d8
3c
f2
15
63
d3
d7
d7
02
61
83
55
6c
ba
c8
a4
29
1d
c9
f9
13
af
53
08
ca
b4
8d
76
77
dc
17
bb
fa
c9
9f
81
6a
65
72
a7
e3
3f
05
af
8b
77
6b
3a
d3
53
d8
59
ed
85
a3
39
62
a2
5a
d9
2c
4b
ad
b7
e0
4b
d2
f5
ef
c7
bd
82
c3
e3
49
89
0c
1d
67
ee
0c
5b
9b
4f
79
15
31
06
66
09
da
57
e0
38
3e
64
2c
f0
2b
6a
bd
02
0e
98
09
f7
a3
0c
3b
48
e9
44
b0
a2
69
f0
05
79
a9
32
84
76
84
eb
ab
f7
4b
3f
b7
9d
e2
6f
1f
c9
90
9c
77
a8
40
fb
51
24
04
f6
5f
7a
f9
01
40
66
09
d5
d2
ae
c0
64
51
c1
c6
9e
50
20
b8
32
c8
c2
66
9e
bf
41
3e
f6
c1
48
4d
73
e7
15
6e
0e
85
49
cb
31
31
5e
cc
25
d9
6b
f7
82
77
b8
fe
04
e6
1e
0e
ce
da
bb
c3
5d
c9
0a
05
25
57
94
c8
36
d9
2d
9a
2f
90
db
25
a4
6f
b9
ca
67
a5
f8
42
f4
50
1b
3c
08
e4
9f
1f
35
ae
f0
0f
ba
fb
7a
72
f3
91
cd
ee
2a
c8
43
88
fb
3e
a1
0d
f8
0d
bd
fd
f8
c1
1b
d1
bc
4d
64
b2
95
10
5d
44
e5
ee
5b
59
c0
90
32
2f
4e
f5
ca
bb
bd
e1
84
3a
43
2d
92
cb
f6
45
95
e9
5a
21
3f
fd
93
95
55
58
c7
8d
8b
30
f1
b9
38
2d
3a
cd
36
1e
06
b8
20
54
89
ac
13
02
b6
a2
68
87
fb
53
3f
15
84
b6
12
76
2c
04
68
97
d8
c6
7c
78
0c
9a
59
aa
29
e2
f7
15
32
cc
42
30
29
61
ca
7e
0a
9f
55
4a
01
cc
37
ad
3c
fc
ca
7a
1f
86
15
bb
74
6f
b5
1a
58
f6
dd
8a
cd
b0
5b
3d
58
c9
fc
8b
a2
ad
a5
ca
1d
db
15
a9
ae
c6
f4
75
94
71
d3
51
a7
ae
8f
a7
3d
2b
e6
99
cc
2c
b9
c2
41
bf
b8
e3
04
03
5d
3a
cd
d1
e5
ef
a3
8c
33
14
bd
65
4f
8e
b5
52
44
d7
8b
b0
dd
ff
4d
c1
57
c1
70
0e
49
58
e7
d8
a0
57
13
9f
e8
40
3e
77
07
d8
55
4c
43
ae
9d
0f
1f
ce
27
ae
34
9c
67
6e
ff
b6
b0
b5
36
6d
e5
3c
80
3b
1f
b1
7f
b6
7b
a3
52
54
a6
61
e9
ef
d5
78
86
29
93
fc
1b
4f
00
c3
b0
59
2c
7b
44
dc
42
28
15
09
5c
21
58
ab
be
d3
44
4e
85
c8
c2
4a
e8
40
91
47
05
b3
78
7b
3a
7e
f0
6b
bb
9b
06
76
77
38
b0
b5
b4
9f
a8
08
c0
35
a7
2f
1f
38
64
96
41
b9
83
af
82
47
0a
f1
ce
a2
c4
31
5c
17
23
d3
ba
f6
c5
bf
ca
0f
f8
56
e6
07
00
03
25
29
da
99
5a
20
85
f9
72
ff
7c
c7
60
ac
93
3b
b5
70
71
b1
55
f2
4e
e7
1d
27
87
43
62
d8
ef
96
6d
f9
10
4a
96
d0
86
95
25
68
ce
e1
52
d4
b6
06
c6
34
d2
ef
61
6b
f5
de
6b
f9
43
3d
ef
d5
87
f9
c9
bd
d3
fc
17
e4
6e
ff
1f
a3
9b
9f
46
ed
1d
a7
89
00
b3
5d
d6
51
85
83
5b
8c
da
14
d2
70
fd
d7
5c
8d
51
02
0c
d4
b9
08
d9
c3
80
9b
1f
03
75
30
1a
59
85
ee
f6
10
44
e9
15
bb
55
de
67
a9
f9
6d
3d
84
91
39
fe
d7
07
dd
a3
f2
dd
e9
8d
e5
08
b1
6a
a3
b5
5d
96
ed
0a
7e
56
10
e4
d8
0a
29
41
17
a1
d2
be
6e
cd
4d
db
5c
18
1a
c6
bd
d6
69
84
10
07
30
f1
14
14
79
0a
8c
00
4d
a2
99
ac
23
a1
6d
10
cd
51
32
ca
c9
7e
a3
09
91
25
6e
c5
1a
15
b2
d7
9f
54
39
55
a8
46
b4
51
b5
50
98
30
20
71
9a
ec
af
76
e9
72
f0
99
e8
1f
dc
c6
16
df
fe
25
40
cc
be
e1
b4
af
21
46
7e
4d
4c
94
8b
82
73
65
74
08
1f
88
7a
31
a6
14
cc
12
45
a2
c9
b8
35
2b
50
ec
fc
e1
ed
65
a1
0c
63
cb
4d
c3
1a
b0
1b
a6
e0
93
cb
1e
8a
37
af
7a
9f
3f
b2
f9
38
cc
78
a8
a3
33
b7
8d
0e
58
b1
07
45
c5
e3
0b
c0
d4
a2
7c
4f
8c
0e
28
e7
62
16
a5
fe
49
ac
fe
2f
aa
82
25
ba
34
9f
d3
ee
b1
f4
d1
ec
3e
26
c1
13
c5
15
d5
cb
51
4b
6f
ff
b4
e7
b6
af
db
53
94
88
7b
55
c5
0b
30
49
b2
30
eb
f9
43
c5
66
bd
af
1c
1a
19
11
71
78
0d
0d
bd
69
7a
da
cb
00
54
27
45
2b
3b
2e
3a
e9
18
76
a3
3f
8c
ea
e6
cf
5d
ad
9c
ce
f3
a3
4a
83
65
af
f6
44
58
32
5f
b8
8d
0a
7d
87
d8
a4
a8
38
02
e1
35
c2
1e
f0
3e
f8
83
0d
0d
6d
55
4d
ee
ca
36
e2
fe
8d
44
9a
30
58
08
e2
57
23
bc
68
13
c1
d7
ca
0d
d1
bd
aa
77
7c
35
05
01
60
cd
30
c6
47
9d
aa
ff
d5
d5
0a
9f
f1
81
f7
e2
48
24
d8
eb
19
b6
3d
2d
0e
e6
a0
b4
3f
ae
c7
2a
4d
2e
b4
38
dd
d5
0b
64
64
c6
64
78
1c
72
f3
b5
d5
09
92
37
f2
9a
5d
58
0b
5a
b1
25
8c
40
ce
6a
f7
94
ac
d1
12
ed
69
94
d2
59
cd
7d
f9
ab
ec
fc
b9
e8
e1
3c
b1
74
d9
47
ab
e5
30
3c
16
7b
ec
c2
f8
2d
a3
e0
56
a1
e3
5a
78
1b
80
24
07
98
89
4b
7a
33
69
9f
f4
55
20
3d
5b
31
04
86
e8
22
45
52
2d
4d
47
87
18
70
2f
75
ef
01
61
0b
6b
fa
f5
c3
5f
50
d1
2a
fe
a4
08
5b
47
83
f6
5b
95
1c
5e
33
17
86
e2
75
89
b4
d3
55
96
59
7b
b5
2a
a0
d8
31
38
91
9e
29
d8
a4
b2
ad
f2
b3
97
79
da
97
4f
eb
1c
f0
17
47
9f
4e
01
b8
06
09
8a
b4
f7
c5
a2
8b
67
d4
44
4b
3b
eb
17
86
f4
48
b5
71
f3
38
82
b7
6b
ac
b8
15
7f
ad
a4
b8
b0
e8
21
d8
3e
f6
2d
00
e2
d7
4e
fa
17
6d
a6
26
90
6c
87
12
88
d2
35
5e
14
f0
80
d4
a6
26
e7
18
88
c4
a3
63
12
9d
59
6a
a8
c4
f6
f7
8a
d9
2b
c1
80
6b
53
e8
2e
f5
1f
65
51
2d
6e
39
2f
26
11
d6
ca
1c
ab
7f
ac
77
bc
90
ca
18
1d
29
9c
fd
98
4f
0b
77
43
62
1f
34
30
8e
e0
f2
44
71
1a
9f
05
0f
cf
31
0f
61
cd
3e
da
96
32
2e
c1
ab
54
71
bf
69
e3
d5
b6
33
d5
08
2c
22
cd
e4
70
cb
9b
0e
22
29
e5
56
6e
63
b3
a9
f8
2f
76
f9
e4
c0
6b
a6
4c
22
37
96
e6
44
51
e0
9a
87
5e
07
de
4a
bd
a3
fb
7b
87
fd
48
b7
de
82
56
b5
60
19
3b
fc
3a
8b
99
e4
86
d9
fe
52
e8
ec
e9
8f
d7
f2
17
fc
ea
ee
b9
92
52
c6
25
93
6a
70
68
5b
7b
77
de
48
cd
22
15
15
45
82
b2
c9
96
97
30
f6
03
2a
4a
62
92
a9
4e
c8
8a
7f
2c
87
53
ae
d2
98
53
75
4a
6d
2b
d7
51
d3
6d
e5
fd
42
02
60
a9
30
07
38
f3
af
db
1c
d6
92
3f
01
3d
16
3a
07
6b
9d
53
8e
e7
ef
cf
40
12
c8
2b
48
a8
18
22
cc
1e
a7
a8
06
80
30
8d
5a
40
5b
48
f4
88
be
a3
21
94
c6
00
82
6f
27
4a
e5
7c
73
57
f3
86
4a
d5
1d
0d
32
7f
b9
14
d4
bc
f0
6f
87
b3
67
3c
2c
ac
46
cf
c0
d1
47
3d
e2
67
19
95
b8
f5
fd
4d
81
ed
97
90
91
2d
82
07
60
cd
37
b1
a6
85
d2
60
63
39
c8
e4
a3
48
41
58
ef
30
e8
8a
bd
bd
c4
bf
60
fe
82
58
de
7f
17
25
c5
ec
db
9a
19
bc
a1
fb
05
03
79
c1
81
95
fe
70
0f
07
22
40
ce
a2
51
a8
b1
6e
71
3f
16
c5
ad
97
e4
88
a9
81
dc
f8
3f
93
2f
b6
ee
65
49
98
b9
47
b4
07
cc
84
0c
d6
e5
3d
61
4e
94
05
09
99
07
31
fe
e2
48
93
29
3f
03
c7
eb
84
2e
00
40
ed
66
50
2f
a9
c8
b7
fe
0e
29
dd
2d
90
e3
ba
c9
bd
24
39
dc
d7
88
27
10
07
c2
4f
bf
0f
49
00
43
f9
5b
4b
2b
da
f9
a1
5d
0c
f1
26
0a
8a
71
3a
cb
d7
40
c6
af
12
e3
39
5b
1f
14
93
b7
04
5b
d8
4a
ba
f5
31
1a
ad
7e
a0
67
da
af
bf
01
ac
09
cd
83
3a
d3
c8
5b
9b
6d
66
d0
c2
0c
07
ef
64
d0
20
b7
10
05
b6
66
2e
16
df
37
3d
e6
28
57
bd
10
88
f9
13
b3
ed
37
2e
63
68
97
46
c4
ac
0b
31
53
21
e5
e1
8e
1d
33
e6
a4
46
f4
7f
30
fa
60
89
f4
1e
f7
ce
34
dc
99
bf
be
e4
7d
b2
3a
e0
24
c8
4d
0d
8c
fa
ca
45
8c
a0
19
be
1c
04
85
0c
ab
de
96
b7
a0
98
e9
c1
26
c5
c5
0b
a0
51
e6
16
62
db
2d
0b
b3
e4
a4
c8
a1
bf
a7
b0
d7
27
e1
ec
9a
1a
cc
2c
02
99
db
64
80
95
b3
5d
72
a4
01
31
b1
41
3b
9f
da
de
19
f5
21
dc
d3
07
08
7e
fb
43
61
92
1f
39
5b
08
05
57
ef
cc
9b
c8
1b
4f
88
79
53
20
9c
0c
0d
37
ca
c0
24
07
b9
94
83
c4
42
d5
90
36
9f
f8
a4
9f
6b
05
9e
eb
13
2b
68
36
d3
29
fe
eb
45
9f
4d
f6
39
40
65
c7
7c
ce
1f
09
f3
58
a0
27
d8
50
2c
f0
a3
d9
12
f5
70
81
97
a7
31
bb
81
96
fd
08
13
80
9e
2c
aa
33
e7
11
72
16
b7
41
35
c8
19
69
d5
9e
dd
a7
e8
34
5c
b4
47
86
ed
35
74
bc
a3
7b
05
06
cc
15
b1
8a
c9
93
47
05
45
4b
d2
57
c8
77
d9
87
62
5c
89
5a
69
c1
ba
1a
89
d2
73
06
bd
ac
7c
5b
d0
a7
53
3d
e5
00
4f
0a
a6
f2
bd
e7
28
c9
29
d2
d5
b8
4e
60
dd
60
6e
8d
21
51
2a
12
fa
77
61
a2
b7
af
05
ea
d4
d4
ef
5d
d5
ee
67
47
62
fa
9e
38
f6
04
99
59
9f
f0
12
05
70
fa
91
31
da
5f
65
10
6c
59
f2
87
db
9a
0e
25
f3
34
95
2c
dd
80
54
d9
69
ad
7e
6c
52
a8
bd
b7
4b
d7
0f
8f
c1
ce
48
33
47
15
bf
a8
bb
b7
55
69
44
fc
fa
cd
dd
3a
ba
79
80
92
c6
c1
b3
cc
5b
b6
14
2d
b9
81
15
68
65
b1
ce
b4
11
4b
81
72
fa
c3
38
ca
bc
45
a5
c6
9a
23
0d
0d
de
54
6e
e3
e6
ae
fe
0c
a2
67
52
11
51
8d
9d
97
78
6d
7e
60
a1
5e
47
db
21
77
6f
c9
91
63
2b
0b
d7
6c
cf
29
cc
d2
5c
32
6c
a5
ca
4b
2e
86
82
39
1b
e8
39
77
8d
ca
85
15
5c
7e
84
7a
15
34
8e
82
67
d1
f1
b5
88
24
7d
cb
42
54
4e
31
3b
d0
36
ec
a6
d1
f8
8d
6c
e5
61
09
00
19
a4
eb
13
41
d0
de
7d
86
df
16
8c
89
62
a9
79
9d
84
58
92
1b
f1
bb
87
a8
89
f2
a7
00
b8
ce
cd
bf
df
30
36
67
b7
4e
c9
48
1c
01
af
1c
0c
83
3d
3e
9a
a2
94
8e
c9
4e
0d
f0
db
14
b1
09
bc
ce
d1
e1
8f
9a
21
55
2b
ca
a5
94
b0
32
3b
00
e0
ec
46
ff
a5
90
61
bf
90
a2
bc
d4
06
83
91
28
6b
21
37
f4
95
7d
e4
b0
83
26
13
c7
05
a5
89
be
65
84
e1
1f
dc
5d
8c
5e
69
07
a4
52
b1
68
26
64
d4
ac
e9
45
e0
1f
3f
91
f3
a5
8d
27
0e
41
3e
6a
6b
0f
04
5c
b3
30
d4
0b
61
60
07
19
59
09
dd
0d
04
cc
60
43
32
bf
bc
0b
bd
3a
67
3b
53
b0
be
c7
ec
d8
e3
83
ec
63
c5
d3
cb
49
38
32
16
c4
cd
20
36
db
26
5f
44
de
3f
cb
c0
09
05
df
87
dc
6d
26
80
c8
11
a4
42
ca
52
33
2a
ed
39
cf
57
f5
8a
f0
40
f6
7c
df
f4
0b
35
dd
21
66
1c
3f
65
2a
94
22
11
e4
63
42
5b
da
2e
30
39
04
75
c6
c8
e8
7f
ea
9a
bf
d1
28
91
4b
df
78
c4
b5
c9
df
24
cf
dc
8c
df
89
91
d8
17
ec
57
1e
d0
e7
28
ea
75
ef
43
b9
1b
f4
5e
ca
b0
ae
c1
38
92
2f
1b
96
3d
6c
c8
19
d4
03
1a
98
3f
a7
38
2c
b2
7e
3a
2c
50
d1
70
b1
43
54
61
eb
2a
62
f5
cf
f7
31
10
2e
8e
8f
9c
85
5c
c6
13
ae
fe
67
9d
e0
8a
ee
f7
f0
14
9e
2c
46
df
9c
8b
d9
9f
4a
62
0b
df
c2
e4
9b
b0
29
ea
9c
3a
24
9a
e1
9f
f0
80
73
55
c7
0f
13
74
b7
6e
16
6a
4d
24
ae
71
a6
3e
ee
0d
19
09
ec
60
71
e9
23
e3
b9
5c
70
a2
86
0b
be
40
3a
fb
9b
10
4e
6b
60
5d
3a
93
35
1b
4b
ea
69
03
84
53
5b
ce
9c
71
01
ad
fe
4d
0b
39
0d
12
a5
af
55
70
85
11
e2
13
55
01
08
ed
8c
0e
1a
0a
d0
9e
ec
25
b3
27
a2
e0
bb
d8
df
7d
ac
3f
b3
44
7e
5c
9f
2d
02
59
55
88
39
bb
67
0d
ef
fd
08
cf
e9
d6
da
26
18
fe
26
db
7b
39
5f
83
db
bf
ce
5b
5e
7c
0b
58
75
21
3f
e3
9b
5f
18
43
f8
bb
a9
26
f1
8f
bf
aa
3c
77
cd
06
b2
17
14
06
ab
62
b6
10
64
83
a9
40
2c
ef
d5
a0
c1
8d
3f
35
e1
c9
8a
72
b9
5b
e2
11
40
fe
4c
38
96
2f
43
bf
a5
13
6f
c0
36
ed
8a
b5
b4
0a
e9
e8
41
eb
18
b4
1c
0f
e3
cd
d8
53
40
8c
a8
b9
88
66
98
15
5c
b6
39
c2
74
df
85
b6
c0
d7
c0
b9
18
b3
48
ae
1a
1f
36
df
40
33
ce
74
a4
b0
50
4f
3d
18
e9
35
8e
07
46
01
ee
f7
23
9c
b1
25
99
2c
34
9d
c6
f9
f0
af
ab
44
97
41
ab
33
45
1a
86
17
01
6e
6c
1e
98
dd
34
7c
76
7c
26
cc
2e
ad
5c
af
11
6a
37
52
20
0b
4b
02
d8
08
36
a5
08
80
6b
74
46
b9
c1
c0
cf
7f
43
ae
76
9b
6c
b8
f7
bf
9c
b8
75
55
fa
a5
36
0b
75
45
c1
ac
15
a6
0b
20
51
e6
97
da
15
b2
d1
c6
c6
18
90
98
56
86
4d
8e
c2
45
35
ed
cc
c3
f9
2c
97
19
1f
86
e7
b6
de
59
9f
5a
2a
59
a7
ec
9c
9e
be
1b
c9
3a
95
0a
fb
5b
d3
4e
70
f0
ff
18
91
d9
4f
83
b7
37
26
27
e4
8a
7a
be
d0
21
e9
e2
3a
92
7c
f9
43
10
e9
4c
bf
2e
ef
b9
01
ce
a7
5f
97
3a
7b
4b
fe
b4
73
2b
45
84
90
7d
8e
5c
24
4d
dd
07
11
d0
9b
ad
05
41
73
fd
28
8f
a0
86
2c
3f
8d
89
df
81
8a
d1
f5
a3
83
b3
dc
1b
97
9e
1d
b4
e3
2d
c8
ef
81
60
6a
06
04
d5
7c
37
c8
45
2a
09
75
e3
7c
46
2d
0e
ba
ce
32
d9
b4
fb
18
9f
a1
81
0c
96
70
ad
0d
de
f1
de
fd
de
cc
7f
27
2e
1e
aa
48
ca
d8
d8
12
0e
1f
29
39
82
23
07
22
94
66
7b
33
6a
6a
8c
2d
20
ef
0f
f4
11
6a
6c
e5
dc
8f
8e
ec
e3
0d
65
d5
5f
56
6a
f3
ed
23
a0
c1
4f
01
98
53
f1
14
82
2c
ec
ba
3b
ba
7d
b2
ee
6f
4a
de
5b
eb
69
e4
2c
04
b4
9d
04
f3
0e
81
7b
2a
8c
eb
b5
90
5f
4b
99
05
4f
44
58
23
38
dc
85
57
12
b2
26
3f
75
a3
2f
f4
bb
50
b2
f0
37
32
68
4a
60
86
68
15
7d
c2
54
e0
23
87
72
21
dc
54
dd
e6
83
bc
91
3d
1a
ae
59
4a
6b
b5
32
0b
47
0b
26
05
c5
e2
ac
a7
d6
8c
c3
a0
69
3a
1c
c2
cf
f0
5b
d9
ff
91
6e
9e
8a
9b
a3
47
19
42
a6
a4
3d
f2
81
27
d1
3f
ce
b7
a1
f5
5a
c2
d0
93
60
7b
60
12
bf
59
02
52
8a
6e
f8
70
b3
a7
dd
b3
2f
09
7a
af
70
7d
72
02
7c
1f
36
e5
37
21
d6
f0
4a
3f
f2
ac
06
ff
a5
d8
1f
38
32
42
2a
15
5f
63
9f
6e
8a
d8
61
15
f3
79
72
94
98
2e
04
70
86
c9
92
3f
cb
8b
ea
39
a7
dd
6b
75
17
c2
7d
71
dd
59
a8
21
2d
59
0a
b6
98
e8
ab
85
b0
f3
b1
99
15
e4
f3
2a
39
d9
8e
64
72
51
95
20
31
fb
08
31
e9
80
89
2d
e2
a4
2a
1e
0a
50
25
ee
55
29
d0
49
4e
31
c6
3e
2f
6f
6c
f9
24
66
d8
ef
4b
b8
cc
7d
b9
0e
36
47
0c
38
25
b0
af
95
a2
60
8f
28
1a
f9
dc
e0
94
79
6b
45
36
de
32
a8
59
71
4b
21
1e
e2
ce
ba
91
89
c9
40
4e
ea
60
1b
de
a9
38
1e
fb
07
7c
22
f5
b5
f8
57
bd
7a
96
6b
22
bd
a1
5f
58
a1
c2
7e
c3
7a
7f
7a
da
92
6c
78
4a
a1
5f
2f
9a
6f
9f
c6
ee
78
c8
a8
81
6a
98
4d
62
57
ab
67
f6
1b
c1
fb
49
89
e0
e7
84
fc
38
42
4f
38
f8
12
10
30
75
03
1c
a3
f6
2a
c1
5d
a2
66
ef
2b
7f
d1
bc
7c
b3
8e
56
7a
8e
c7
5f
79
f7
a4
99
b2
ab
94
bf
de
d8
8e
42
9e
c0
b6
8a
3a
7a
90
8e
a9
d1
cc
b1
96
c7
77
34
7f
db
30
a0
c1
52
03
de
79
44
3a
9e
f4
61
7c
a3
b4
b3
ca
97
ed
80
03
87
bc
87
d0
5c
66
ed
6b
24
76
8a
af
e8
72
39
5a
d5
6a
ab
fa
35
7a
da
8e
c2
a1
3e
e2
d9
52
83
06
02
b2
7b
40
48
dc
13
e5
ef
7d
ca
28
b1
df
31
96
b2
7a
3b
d6
c1
0b
26
2d
d6
fd
95
97
ec
f0
69
f3
93
7e
f5
5f
be
03
a0
61
44
05
44
65
a1
48
77
45
5b
51
3b
ab
f7
30
3e
22
37
64
79
54
6f
36
b0
37
9d
c1
56
ad
2f
bf
8f
47
8c
c0
b3
f1
fe
91
c4
ee
4e
f7
0b
6d
6e
fa
79
f3
0a
ca
dc
53
3d
df
f8
8a
c3
06
ca
e1
a6
54
6f
f3
05
e0
1c
bc
5d
d8
78
6f
c0
8d
2a
8e
6a
70
2f
1b
dc
4f
f4
47
52
a3
7c
d6
b6
66
12
8f
5a
aa
99
2d
65
7b
cc
db
09
bf
fd
d6
9e
fc
0b
98
8b
57
cb
13
3d
ee
94
43
c3
75
69
dc
ba
d1
89
f8
db
df
af
6c
bb
16
ec
f9
9a
68
91
61
3d
65
bc
3a
29
ea
bb
84
99
f5
da
1b
a2
85
05
9f
0e
3a
c7
a5
c7
d8
b0
ed
35
b7
47
f5
97
f2
91
98
1d
0b
c9
57
2f
89
7a
91
33
82
65
b8
2d
c0
ad
8e
24
3f
db
15
2b
b3
55
ca
ca
ab
fd
79
5a
2a
47
12
28
05
cd
8e
1b
42
84
60
da
be
e7
ae
1c
24
ba
64
ab
f0
f8
d7
90
9c
10
4a
4a
4c
6e
1c
7b
41
1a
b2
dd
3a
39
75
21
76
50
fe
55
44
31
41
4e
8a
31
fa
79
cf
40
5a
55
c7
f9
a8
06
de
4a
b1
69
98
aa
cf
02
2e
f4
ae
2f
6b
a7
73
12
79
b6
57
99
51
f8
7f
92
e7
21
6d
f1
20
96
3b
77
ac
60
96
7c
b1
b4
cd
75
0c
79
ad
24
b2
39
25
e9
7c
58
5a
a1
cb
f6
8c
d2
99
fc
2c
51
3d
40
21
d6
0c
f1
44
18
93
a4
76
d4
a0
53
4f
27
0f
62
9e
b6
b4
95
2e
8b
81
c1
bc
13
ef
7d
7e
1d
9d
0a
35
16
45
a0
50
b5
84
a8
6a
95
86
e9
23
57
34
1c
a6
47
f2
55
56
59
33
d0
0b
1f
56
fb
15
14
14
7d
c4
b5
07
98
63
0e
77
7b
dc
e8
54
70
bb
32
83
f3
42
d7
e3
e7
10
38
5d
51
a6
46
4d
6f
dc
9e
e6
82
70
b3
ec
46
4c
8c
11
a6
17
ff
99
10
a4
0f
3f
4c
8a
eb
09
7e
bd
78
9e
f0
b0
66
9b
6c
1f
8d
c9
d0
1b
6e
74
b4
89
10
89
1c
0f
cb
d0
e1
85
c0
fe
49
d4
8d
dd
5f
fe
87
49
e1
e1
84
ed
b0
a8
c8
c7
47
16
74
e3
d6
41
3a
dc
4f
cb
d8
86
3c
49
32
e7
b1
0d
aa
75
3a
78
d8
7a
06
93
6a
12
22
4b
66
d1
a8
14
5d
b6
b6
b0
e7
61
49
95
7d
e3
6e
e6
bc
18
2f
39
b4
32
88
b0
8b
a5
dc
5b
17
a4
ee
97
5d
c6
25
37
db
a5
92
6b
fa
bd
bc
ab
9f
cb
47
62
ff
0f
42
b3
fe
c3
e2
67
50
3e
13
3d
61
d5
67
67
e7
13
f5
ae
d0
84
81
d8
0c
a3
a0
59
bd
f8
f8
d6
93
40
9e
67
e5
34
c4
7e
dc
13
6e
10
23
de
4b
b7
13
44
b5
e1
f3
59
d1
bd
96
ae
5e
a1
c2
f4
12
e2
85
d7
a5
a0
b4
98
40
9c
52
57
be
15
89
70
a3
d0
17
26
1f
23
ca
bd
dd
3c
35
d0
a3
b8
c9
89
3e
ef
e8
f1
c3
75
db
07
dc
b2
03
ed
bf
a7
90
c2
0b
d6
d0
9d
4c
6c
f2
76
c7
b4
eb
c8
2b
15
50
39
6b
ff
c0
b4
2d
6d
22
17
47
31
91
4e
64
53
60
94
da
db
42
68
12
9b
4c
a8
58
58
e9
62
0c
e5
dc
20
54
87
dc
91
55
f5
a3
53
ad
7f
20
35
e6
3c
d0
26
c6
5a
12
cf
e3
f4
8a
16
8a
d4
d5
3f
bd
0d
c7
8a
ae
60
61
98
83
1c
9e
e6
8e
fa
53
ee
7d
ca
28
09
a8
a4
1a
24
12
e1
ec
a3
d3
d0
28
02
d5
a1
a0
35
48
5f
66
e4
f4
3d
15
6f
3d
73
38
92
3f
45
d0
9e
c5
7f
ca
5c
3b
8f
ae
5e
ca
81
7f
19
21
4e
a1
9c
22
ca
5a
42
c3
90
aa
dd
01
a3
29
00
19
5c
89
56
e7
b6
a9
b4
6f
5e
89
2e
e6
4b
dd
01
65
6a
bd
4d
38
47
72
f3
9b
7d
43
91
00
5e
60
21
44
8a
37
21
3a
b3
66
b5
fb
8e
7c
31
8a
db
1f
d5
20
81
b1
f4
52
ae
d3
21
21
60
6b
d2
7a
07
bb
bf
1e
e8
da
3c
fe
15
35
eb
e8
3c
bf
88
9f
d2
db
ec
e4
04
34
d8
50
3c
95
f5
86
34
21
63
f1
91
6c
64
95
b7
5c
0d
92
12
eb
e2
25
5d
2e
a3
bb
1b
a7
83
cb
b8
62
6a
cc
78
ee
bd
95
aa
87
69
0d
2c
5d
23
dd
97
70
40
1b
dd
fc
d2
4e
8e
29
d1
07
70
3f
89
a3
31
8c
5b
bf
34
1f
2c
f6
34
cc
fd
60
69
23
cf
2f
05
f0
f0
05
95
e0
75
ea
13
ee
8f
35
0f
bb
ce
46
33
01
cb
1f
08
50
10
d4
1b
a7
1f
83
7e
6f
3f
bc
87
38
c0
bf
12
cf
03
dd
19
64
af
fd
e6
de
6f
67
ad
7d
5f
c8
da
96
84
c1
d9
95
4a
cf
d3
02
a5
74
d1
77
b8
2d
55
5b
26
d8
80
40
3b
8a
89
4f
0a
9b
a7
d8
93
49
c9
74
ec
b0
a6
be
6b
8a
41
27
fe
5b
fa
a2
20
7c
11
d2
9d
e1
55
b1
3b
d8
ce
ef
2e
08
f7
ed
bd
4c
35
cd
0a
ae
07
bf
08
ba
70
75
4e
a7
24
d5
a3
65
28
7d
cf
24
f3
b2
e4
be
e9
0b
2c
48
a4
30
78
2c
40
d9
c7
c4
de
44
53
f7
a2
e9
9e
6f
0f
4d
da
53
ae
f4
01
cc
dd
97
06
38
25
e5
51
0a
08
00
16
43
03
9c
2d
3a
c6
a7
b8
b3
a6
75
8d
66
8e
cf
ec
be
41
99
d6
c7
79
1b
e8
5d
ff
1f
db
14
cf
57
24
2e
27
f6
3f
ff
d6
8c
f1
81
04
1e
ee
7b
36
72
06
f5
6b
7d
b8
f9
2e
61
50
8c
4b
67
d2
52
46
86
5d
52
e0
38
7d
c3
14
22
dd
28
34
48
0e
47
41
3a
fa
d5
96
9a
49
81
e4
69
06
f9
25
c4
ca
fa
04
93
47
91
83
1a
4b
55
d9
6f
18
00
58
a7
4a
7f
36
af
7a
20
cf
f7
04
c1
80
83
21
03
22
8a
31
76
da
bc
d6
25
a9
4e
d9
36
b0
05
53
d0
99
44
7e
5c
02
40
f8
8d
4d
b4
cc
cd
c3
4f
01
3a
5b
d4
97
85
22
11
47
4d
ff
be
61
11
cc
6c
11
43
4a
d4
a3
77
de
c6
85
d7
61
17
38
dd
fe
80
50
a5
38
75
8b
4d
1c
7c
a8
7b
20
6e
1d
2b
1e
3a
81
4b
53
d6
b4
99
8b
0a
9f
1e
61
e1
85
3a
93
c7
cf
f9
62
8d
81
10
50
72
a1
7b
07
49
af
36
52
98
5e
5d
b4
c1
a8
71
3a
bb
60
a3
ef
c1
80
75
5d
7a
a9
97
b1
ec
54
08
f4
44
c3
e6
4b
cc
ec
19
33
da
1f
b1
34
5f
53
77
0e
8a
04
27
d1
68
41
39
90
c7
15
d3
ba
37
c4
b5
cd
d6
7e
e6
41
5b
34
3e
d2
3b
af
51
6f
d8
24
bb
54
e9
76
8f
51
41
cd
34
45
c5
4f
3a
b0
96
96
d4
20
ef
11
52
6b
ab
9c
f5
9c
d0
af
7a
39
7e
28
6d
fc
2b
80
a7
15
a6
d1
96
e1
55
25
71
23
ec
a1
ac
9f
88
2c
c8
dc
d4
91
b9
66
34
fc
05
f3
a6
0c
85
6c
2b
ad
04
8d
a8
c0
a5
b2
54
f0
17
b7
32
7e
20
bd
86
8e
03
63
a3
45
e6
9a
e2
ab
68
47
06
12
c9
b0
7c
72
b8
61
5f
39
60
a0
10
99
9b
ed
ee
38
1e
a1
e8
6e
ce
a5
a1
af
1e
30
49
ec
bf
dd
77
d5
03
62
cf
28
47
2c
c2
22
57
dc
35
e1
53
3d
38
50
50
5f
3b
5f
4f
a6
60
11
02
3f
4a
c1
33
ea
a2
e2
b5
6a
5f
6a
4a
3c
b7
09
89
4d
14
f3
aa
f7
10
fe
9d
e4
f6
29
90
a8
6e
32
88
94
d3
b1
66
1a
76
5b
2b
12
40
21
54
14
d2
71
43
64
65
67
f1
ee
a7
b1
fa
a6
75
ce
83
2e
72
1d
6e
6b
82
9e
b4
55
e3
a8
fc
53
d0
7c
ac
0a
fb
af
d3
ff
09
8c
e4
22
b7
f9
85
f6
f4
ea
02
72
5f
6e
89
a0
67
e1
70
36
9f
14
e3
35
47
b0
99
b0
c0
45
b7
32
16
7f
0c
c4
89
28
5a
0f
fc
36
7c
b9
12
5a
2b
cb
67
f5
45
26
b1
5b
54
f2
6d
1a
b2
16
d7
4f
9d
1d
8a
d3
95
79
ef
36
c2
be
9d
64
09
75
81
96
35
d7
8c
96
49
ce
d5
9d
dd
a5
00
b9
1c
46
59
00
ba
12
50
b5
d8
77
d4
97
a9
ad
32
22
91
cf
ce
3b
e5
57
fa
c0
77
85
72
1f
b6
48
03
3e
47
25
71
77
d7
dc
20
c1
7e
c0
49
fa
79
84
79
40
dc
3b
15
e7
ca
d7
d4
70
5a
43
bb
9c
a2
0b
f5
b4
eb
c4
62
33
2f
f0
b5
e8
a3
4f
47
7e
63
c6
6f
cf
91
35
c8
c5
7c
fd
5f
af
cb
e7
35
3c
20
5e
0a
1f
15
a4
ef
23
f1
b8
c8
c4
10
cf
20
8c
f1
e9
56
61
33
22
13
5f
b4
d6
2c
8b
fb
06
2e
9a
0b
0c
e7
19
41
2c
17
21
6e
df
65
b8
1a
ce
b8
5d
64
e6
b6
04
13
0d
c7
93
e7
a5
82
53
db
13
77
ec
76
6b
0d
a2
a6
5e
d1
9c
0a
a6
af
92
64
2b
4e
f1
3c
04
2e
7f
7a
1e
70
65
eb
9e
38
2e
7e
8a
32
c3
0a
55
e2
07
0e
3f
8a
75
48
bd
58
23
cd
f3
66
44
dc
1b
35
2a
1f
a1
85
36
5f
ae
dd
31
7a
0f
1d
f9
42
26
20
54
cf
05
3f
20
b0
7f
4e
cf
ed
17
2f
a1
50
3c
6c
51
e4
e7
b9
b0
d4
71
95
e5
c3
41
c3
4a
70
b6
8d
59
3f
fa
2d
4e
95
76
22
36
6a
fe
db
77
f0
28
83
0a
97
c3
90
c2
70
78
ec
34
a2
63
49
1f
89
77
63
f1
a1
ba
19
67
04
f6
42
94
90
3b
79
8d
c5
1d
5f
48
4c
66
2e
62
eb
40
42
3a
c9
64
f8
3d
2e
61
b1
b7
54
12
93
fa
41
46
39
e5
76
cd
86
92
9b
ce
7b
53
91
c9
7a
b6
0f
67
40
ef
19
81
82
57
e8
30
28
cb
a4
2a
17
ad
ca
39
6f
2f
b9
d2
a4
97
c6
c3
e0
47
ff
d6
43
96
f2
e5
d3
e7
90
1f
49
ad
9c
6a
0e
4f
6e
3b
8e
47
1a
8f
5e
99
64
9d
7f
d4
8b
72
67
d6
ce
6f
3d
6b
0d
6d
42
5c
32
b7
9b
1e
cc
c2
16
bd
18
1f
43
d6
f6
52
f5
6d
41
93
b5
1f
e8
75
15
b2
b3
46
95
e8
33
8e
a6
0c
d0
b1
96
9b
7a
43
05
74
04
37
da
40
7c
21
d8
47
8f
fc
43
34
0d
b1
49
51
ea
d1
61
b3
50
e0
d1
30
01
1f
68
5c
83
40
46
5c
f7
3a
6b
4c
22
78
bd
58
7c
90
59
33
0e
39
22
ea
b0
60
0a
41
0a
39
21
8d
96
d4
f4
f2
5f
6f
20
4a
b2
6b
2f
0a
80
d6
f7
8b
f4
30
bf
64
b0
3e
be
a2
d2
74
19
83
c5
47
41
38
9c
bd
d8
53
3d
ad
c3
d2
1c
0d
0d
fb
76
f7
df
11
29
ff
ac
f0
74
11
4d
1b
e7
b4
7b
82
5a
90
f2
54
d4
4d
05
cb
5a
b3
a1
d0
79
91
60
a8
51
5f
a8
97
1f
c2
26
2a
13
0d
06
0e
3b
4f
ea
a9
ef
23
46
37
e5
6a
51
45
d7
3d
d7
a3
a9
ac
8e
22
ae
6f
85
ce
a0
4c
14
ac
c0
3f
c7
d3
54
ef
a3
dc
74
e8
28
4b
0a
12
12
f1
b0
03
0f
fd
90
6b
51
64
23
80
17
de
e0
76
89
5c
6e
3a
a4
1c
0e
8f
7c
16
ff
22
34
f5
39
49
b1
0e
ae
63
93
ac
21
3a
60
25
6c
ad
b7
f3
c4
62
ae
08
3d
67
56
db
de
28
9d
a3
38
ce
de
dc
f0
9e
09
26
d5
95
53
a9
2f
ca
7f
f5
49
cf
2c
b3
f5
51
91
bb
43
25
a6
8c
48
b4
9a
fe
a3
c9
87
f9
16
56
b6
3d
ad
81
c7
aa
be
d5
a6
da
de
c8
16
44
a6
04
84
21
b4
ab
da
fa
16
b8
22
dd
06
3e
09
03
8c
67
0c
7e
6d
4e
29
91
1d
26
b7
78
19
01
30
e8
f7
53
56
ef
07
93
eb
b5
6e
6d
61
99
9d
b2
e7
38
42
3a
1e
00
39
b3
5e
f7
ac
c4
3b
6d
17
6c
bc
98
68
cd
22
3f
35
32
a1
28
a2
b3
c1
29
5d
e5
2b
ce
3a
de
1a
3d
ba
8b
67
1c
e3
88
0a
1c
88
c4
a1
e1
ea
13
4e
b8
f4
c8
2f
0d
ac
52
91
6b
ef
3e
60
b0
08
98
49
a5
46
9f
4e
04
60
3a
6d
73
47
dc
98
d2
cd
5f
78
9f
06
91
fc
c1
f9
09
68
61
ad
e7
6b
72
f1
66
67
ac
c7
76
c7
b2
c5
83
51
e2
50
71
84
9d
85
78
43
63
46
e1
43
3f
9f
7e
f0
65
2b
fe
c9
f6
73
80
68
4c
00
38
de
70
55
69
b1
41
68
5b
73
4e
23
e8
46
aa
2f
03
46
dd
4a
92
62
7d
53
be
8d
79
af
a7
ac
34
59
d7
af
0f
ac
c2
71
b0
78
59
69
dc
c7
eb
2d
54
22
5c
7d
3b
96
84
6d
02
07
bb
93
47
0d
ad
3f
d1
6a
46
f3
fe
9c
a8
67
47
b7
1a
b9
d1
9d
7b
ec
10
6b
11
39
8e
4d
10
85
7b
6a
5d
99
c1
c6
78
54
c2
1d
fd
c3
ac
9f
0e
26
a6
cb
80
ad
3a
2e
52
6e
5a
58
6e
d2
ad
32
0a
b7
8a
15
86
88
61
81
56
b7
17
13
83
ca
e4
66
b0
2b
7a
cd
e2
ed
4e
9d
b1
9c
6f
2d
6f
fe
05
ad
d4
52
15
40
74
07
56
fb
5e
e9
07
39
4e
40
60
22
36
07
32
08
9d
ec
2d
bf
ec
18
bb
da
b2
c4
4a
87
aa
93
ad
78
82
d9
06
2c
5f
e1
9a
f6
2a
52
e1
83
51
70
05
36
27
fb
99
fd
64
8e
4c
4c
51
33
76
47
7a
38
cd
70
0d
d1
6c
83
84
af
e1
3a
42
5e
23
da
b5
9b
6d
b8
62
4d
ab
15
69
3e
22
81
d5
56
ea
5d
b5
fb
f1
82
0f
a1
20
76
23
51
52
01
23
29
99
ba
b8
33
93
b5
6c
ee
f2
d5
bf
76
6a
a0
2b
87
1f
d6
fd
b2
8f
d3
eb
47
84
45
4e
1f
bf
7d
dd
0b
64
67
d3
8e
aa
03
db
91
29
69
f9
f9
6f
e5
ea
86
6d
9b
f4
80
fa
b5
f0
c7
fe
09
e3
4f
3e
e9
6f
3e
ad
66
e3
20
61
2c
90
1e
f2
78
7c
85
41
76
8f
62
56
ca
41
c4
de
b1
b4
93
40
fc
ef
cf
c4
b9
d5
67
82
eb
6b
d7
7b
f0
a6
eb
e6
56
5c
ea
75
79
78
15
aa
e2
b4
4f
9d
b1
88
3e
f7
59
8f
88
2b
5b
55
cb
10
41
d5
f6
ea
34
46
e7
f4
64
18
82
16
48
d8
5e
e5
c9
5b
e7
63
3f
ec
50
bf
af
6a
14
e3
eb
a7
d8
d2
07
50
9f
04
71
17
e5
6d
39
0d
b9
cf
4a
52
f2
2c
c1
ce
bd
df
a5
b2
2d
3d
5d
2f
cc
1e
ab
db
5d
e5
76
0a
2f
5d
14
51
ee
8f
a4
f0
c5
99
8f
06
99
72
f6
d8
22
1b
0a
57
14
bc
01
bf
7b
63
35
cb
53
41
48
52
55
cb
7c
c7
4d
4a
03
0f
e6
e6
23
96
4f
33
04
84
8d
09
16
60
00
72
9f
b2
07
9b
80
5a
20
59
34
4a
f7
01
20
94
6a
cc
6f
e0
66
08
8f
fd
ec
d5
69
98
62
76
73
eb
fa
e7
23
24
e0
2b
ad
70
5a
95
6c
9c
ef
cb
a0
c2
5a
d3
f1
29
90
0a
dc
89
1e
cd
d5
b1
75
30
0e
45
70
fe
bc
4d
dc
ff
25
e1
a6
92
0e
4d
bc
f5
e8
aa
b6
8d
8a
53
63
f4
b5
f5
d0
78
69
11
37
bf
49
ef
1f
38
ba
e3
65
b9
c3
db
7e
e9
0c
b7
b8
9c
0e
ff
e7
3a
f7
a0
57
7b
93
aa
5b
de
61
bb
c5
90
f2
93
3f
f6
4d
09
19
78
0b
8a
00
b7
c7
d4
ed
66
ea
1f
bd
e8
c3
3b
73
b6
e0
6f
15
80
c0
c5
a9
27
5c
be
33
c0
99
6b
46
99
56
60
bc
64
ae
5e
78
7f
4d
34
7e
07
c7
99
31
81
32
9f
fd
00
b8
7e
28
c8
bc
9c
1c
6c
bc
5b
41
41
2b
32
5e
02
2d
be
e3
dc
1b
81
e6
71
05
91
32
c5
f2
65
19
7c
af
b8
8e
c5
f4
1e
2f
02
87
41
46
64
d1
d2
9e
c1
d7
e8
45
8d
39
95
7a
fb
a0
5f
c5
5e
27
9c
09
3c
f0
65
6e
47
f7
50
a1
a3
86
96
41
93
5a
57
ae
6b
d3
ea
78
5d
74
33
ea
96
c8
a3
e7
15
67
82
86
62
76
74
16
02
80
e3
f6
a0
19
64
ef
ce
4d
09
b6
b6
7d
18
6f
d9
0b
aa
3a
f9
01
7f
e4
00
fc
7d
08
98
5a
20
f9
5e
1a
a7
63
1f
ff
e0
51
8e
78
70
34
05
cc
b3
5e
b5
b7
1d
26
94
d2
d2
a3
97
12
f6
f4
79
d9
fc
b7
f2
f9
8b
e7
b8
d8
e7
60
28
50
bb
93
d1
5d
02
82
cf
59
92
a9
12
b5
81
f8
a5
f5
0d
19
78
41
65
07
5d
43
08
a3
b2
3e
b6
76
35
1a
7c
c9
db
dc
df
ce
ae
cd
08
e8
18
c9
bc
31
05
47
83
2f
61
b6
d4
e5
48
c4
dc
30
75
39
f5
3b
95
e6
20
c0
22
cd
eb
f8
aa
60
1f
3e
61
90
f3
0a
f8
ca
dd
62
95
aa
b9
ad
8a
2d
39
d5
7b
6b
21
6b
92
0b
aa
02
d8
bf
ec
1e
be
51
ec
74
7c
38
53
50
56
d6
bb
22
76
6c
7c
7d
75
7d
89
c0
bf
cf
83
23
44
16
c9
d4
43
0b
1b
03
d7
36
c7
fb
5e
da
61
65
63
5b
64
8e
5f
a2
6e
02
43
74
4d
a0
dc
3d
12
22
4d
df
89
dd
d9
4e
91
36
d2
e7
1b
4a
7e
35
9f
9b
be
34
49
a5
e5
25
07
05
28
e4
aa
4b
3c
8d
c9
53
f7
68
a8
1c
03
d4
3d
fb
b0
9f
7a
00
74
12
cc
62
e6
63
a9
aa
83
b4
a1
ba
39
1c
26
fc
34
24
ee
56
3f
17
23
c5
07
b6
05
85
b1
ea
3e
66
f5
e0
3a
ea
ea
6d
f7
2d
89
4a
7f
f8
9a
d1
05
ea
98
9a
b3
05
27
3c
8b
c8
1b
ed
cb
56
5e
0b
f2
7a
b8
29
37
f2
98
00
15
ed
14
85
c3
47
71
1e
b1
74
35
94
67
a3
70
36
14
fe
e2
9f
89
68
3b
e6
ce
7f
1e
de
0b
fb
8f
5b
2e
19
42
d2
3e
51
b7
42
87
cb
da
f4
c0
b1
0e
63
7a
44
e2
35
c1
c2
3b
18
ea
9f
c5
1f
45
45
3b
bf
cf
21
98
72
a0
b4
43
3b
d4
a7
75
ed
1c
6d
48
f8
37
92
b4
24
8d
d6
39
18
82
4d
8c
89
e9
d4
52
0d
fb
50
ce
8f
be
93
72
89
03
a5
6b
2d
9a
a2
93
6e
6d
c5
67
27
fb
18
96
87
50
62
67
29
11
51
2c
3c
34
17
6c
c6
1b
fe
d1
03
be
13
b7
d3
93
5a
4e
7c
89
73
71
8f
2b
d4
a2
32
5c
b6
63
bd
41
17
c1
84
6a
44
65
60
04
11
1c
81
7b
47
94
27
25
77
3d
ef
77
0f
7d
5d
9e
cd
e7
74
e3
8f
74
0b
40
3c
7e
af
20
09
f7
a7
ea
23
a3
cc
a1
01
0a
8b
5f
79
dc
a4
ef
2e
c7
01
10
92
1b
04
d3
fd
d6
5e
33
c0
94
b6
5d
ac
ef
57
60
5e
e6
92
3f
60
27
df
58
48
ab
16
70
96
55
75
eb
bf
0a
b6
02
b8
08
cb
b3
6d
1f
33
6e
98
77
2e
e8
4e
17
49
02
af
c0
af
c5
c3
b9
2a
c3
70
c1
d0
47
57
42
f0
9b
1b
11
ed
9b
dd
a8
9d
35
41
b1
b0
74
d8
8d
dc
63
fb
78
b4
1f
02
75
73
34
e4
25
4b
1e
78
55
24
c4
61
31
20
9f
82
c5
54
d5
88
6d
5b
66
2f
82
2a
04
4c
bb
81
86
b0
fa
96
54
ac
87
49
69
76
c5
d6
41
fa
b6
eb
6d
f0
27
24
9a
9e
c2
33
3c
cf
58
7e
ab
2e
62
21
40
6f
24
3b
e9
eb
91
04
41
71
2a
7c
98
ea
44
ab
e6
28
0d
61
b1
b4
ff
31
65
40
6a
5a
80
69
f2
2a
83
68
22
ce
65
79
30
6e
87
f7
f6
ec
93
03
c0
9b
4f
aa
f0
d5
f0
56
66
bf
58
04
a7
7b
1c
ce
14
e0
45
32
0d
59
cb
10
ec
97
18
93
e1
fc
50
53
94
a4
3b
8f
c4
a7
62
ef
93
9d
85
ce
b4
ae
c2
49
20
02
41
15
ba
74
14
77
18
9e
b5
0f
56
49
45
7c
c7
5f
85
65
45
36
9e
e9
3a
ad
94
e0
18
20
33
04
71
7a
72
0e
4e
f4
82
58
99
9b
2a
3e
70
83
2c
2f
00
f5
5b
18
ee
77
5b
cf
30
77
a5
e0
df
24
e8
27
30
3a
bb
d6
e3
53
26
71
03
ca
b9
29
5a
1c
6b
73
27
a8
5e
5a
99
69
ea
e8
37
eb
35
d5
b1
64
73
23
13
4e
2a
b9
a5
74
a2
13
8a
b4
64
f9
5f
44
73
9a
67
ff
05
9f
0e
98
f9
e7
d2
36
dc
93
67
0f
c1
58
08
f7
c1
59
40
b6
12
90
9e
de
cd
c0
ab
2d
82
93
d8
55
d3
6c
12
1b
10
e7
04
3f
9b
df
be
75
d0
a1
9b
d1
76
19
e9
7d
0c
34
80
df
02
12
f0
08
0a
94
79
8c
b2
8c
92
c8
5d
86
a2
5c
59
af
e1
71
08
c4
49
6c
1d
f5
4a
1b
30
54
55
5e
ba
55
38
fb
e6
ff
28
e8
a9
fa
6c
17
fa
eb
f4
a0
7d
a8
83
ed
f0
4f
44
45
92
a0
8c
55
70
29
7a
5b
53
a9
78
1c
90
75
9c
0c
22
bf
43
f2
49
88
89
4a
d7
7b
0c
21
48
9f
89
74
de
79
33
e7
5a
cd
ce
c1
71
fa
da
2f
67
b3
f2
8d
eb
e3
60
ea
f5
9c
30
b5
6a
85
55
7b
8e
71
14
46
d1
27
0a
e5
3d
bf
b2
e9
92
63
9f
bf
8a
94
c3
e2
b5
78
34
dd
85
9a
1b
d5
75
b7
6f
42
53
ec
54
56
8a
90
e7
87
8a
4d
5d
36
f5
ad
2d
6d
18
06
f0
32
56
54
5a
32
8e
c4
b7
95
83
ae
16
b4
01
77
1e
8a
50
e6
ca
df
9a
78
ad
90
d0
00
38
4e
00
81
1e
ab
b1
49
43
ee
23
f6
23
bb
bd
f0
5d
35
73
7a
14
76
fa
21
08
73
fc
a7
ef
04
e9
19
26
a9
4c
34
97
5e
9f
0a
5a
c0
d8
6f
31
dd
ee
0b
01
ee
91
59
09
85
30
7a
8c
d4
49
61
ff
fc
6a
6c
b0
2f
b3
58
44
b7
f1
2f
6f
f6
a5
7a
74
00
7c
6f
2f
04
44
a3
71
36
36
32
33
13
74
5e
95
07
ac
53
14
ae
04
db
2e
8f
5a
95
58
05
e0
2f
83
f4
31
22
a4
0b
76
ee
17
fa
55
f5
0e
63
b9
52
88
88
bc
43
94
57
5c
1f
b2
22
91
70
05
6d
3a
b1
d2
af
df
76
34
0b
7d
69
07
12
d0
e9
d2
1f
89
9a
0e
35
2e
e4
e9
50
8f
17
48
83
d5
bc
7d
0a
87
98
b4
0c
c0
f5
92
c3
f2
f8
1f
50
9a
7b
ea
ea
98
b5
1c
f8
c7
14
1c
12
a2
45
34
7a
16
8e
17
6b
44
7c
0f
ed
be
38
55
e4
46
1f
2c
09
4e
98
0c
70
43
77
2f
56
9f
c4
87
44
a2
91
a6
be
94
1b
34
ff
d8
5a
7e
ba
81
67
94
21
21
38
a8
31
63
5e
29
bb
ba
0f
fb
29
45
76
e6
ff
9b
e1
b0
fd
df
1e
c8
4c
59
02
67
0a
e8
0d
96
b6
6d
4b
e1
b0
44
4e
67
6b
59
80
88
c9
76
13
57
2a
bc
fb
6a
75
21
8e
ca
b6
c7
0e
0c
a6
15
9f
d9
55
e4
17
60
63
b5
dc
a5
d4
8c
a4
ea
ce
fe
41
4f
37
62
6f
d8
1c
45
12
78
8f
dc
b1
00
22
e4
58
c2
ca
06
c1
f5
6d
a3
b8
69
9f
7e
dc
dd
62
cc
c7
ff
cf
ce
f4
07
26
28
af
7a
39
6c
ed
1d
6e
ff
47
ba
1d
6c
37
7e
91
ee
e1
8b
a5
25
88
07
68
f2
3d
50
0d
06
dd
2f
ca
21
e9
eb
71
ac
46
d2
db
66
c2
9a
6c
0c
f9
2b
e4
8c
35
21
cc
86
fe
c7
6f
f3
a5
ca
15
44
8b
04
4b
b7
ba
56
0c
61
02
6b
94
7e
1a
52
db
64
2d
70
66
f9
b0
3c
37
8e
c0
3e
d3
8b
ab
e2
37
5d
a0
6a
29
b6
70
6a
f1
0a
ef
20
0b
54
09
fa
11
3f
f0
53
e2
5e
2d
87
d9
b2
04
00
71
01
d8
06
f6
70
37
d6
a2
24
5b
46
61
9a
2c
a7
83
b2
83
62
ec
b7
4a
46
38
fb
c9
c2
ee
2d
59
3d
b9
65
f2
73
9a
49
f9
88
e0
09
af
d2
b3
97
04
dd
16
79
7e
62
ba
f2
c6
28
34
68
3d
58
77
bf
af
29
3d
10
6b
d6
fb
bc
1e
0e
32
de
95
68
14
01
20
e4
08
c2
85
cd
8c
72
63
bd
eb
57
df
a7
e0
7b
10
60
63
50
c0
78
57
38
f5
79
ef
25
85
5b
1c
9f
06
21
e7
49
64
2c
00
ff
fb
38
5a
59
de
66
e6
67
7c
b2
fe
b6
03
f5
df
5d
01
4b
b8
aa
3c
17
f7
39
ef
e7
47
a3
11
0d
5a
8d
c9
b4
f0
47
c2
e5
62
61
5c
5d
90
40
cd
e2
03
0b
37
09
c3
4f
e3
a0
56
b2
43
ed
29
f4
e5
a7
8c
7f
22
8c
1a
c3
fa
9f
f1
7b
94
ea
01
a2
2b
4c
f1
14
19
17
52
0f
e2
cb
36
15
3d
bd
82
49
a4
53
ce
0b
da
f6
72
c3
ae
15
b6
ca
49
7b
42
52
c2
e0
f3
04
fb
f0
c8
89
2a
60
04
96
f6
c7
b4
3a
46
95
1d
78
8f
2e
ac
f7
bf
cb
0c
e0
0f
58
f4
f9
91
74
bc
0f
9e
61
9a
05
f7
78
c8
ac
a0
e9
03
a0
81
20
2a
c6
5f
8f
e3
30
81
c0
f7
69
37
a8
a7
da
87
12
15
77
03
e4
c2
e7
51
42
64
1c
4a
44
6a
64
5f
c6
6e
ef
0a
a9
7a
5f
e8
8e
78
63
fa
b8
0b
1e
73
45
00
db
c5
03
b5
70
c6
89
c0
1d
3e
21
7d
e4
2d
17
1b
ba
e5
52
ef
eb
46
ff
aa
93
6f
94
e0
32
e2
b7
b0
29
4d
61
4a
36
e8
85
f1
b3
e1
1d
2a
59
a3
5d
46
b2
41
0a
ca
d0
d3
11
b5
5b
2a
02
64
38
1b
cb
ba
e0
0f
52
af
49
d7
b4
28
34
af
43
c0
fe
01
b0
e0
79
5b
95
3b
f4
f7
31
56
d2
dc
32
b7
0b
71
81
af
c9
db
95
14
9a
8d
5b
93
d2
0b
2b
f7
92
46
66
80
ad
1c
36
e6
51
fc
e0
7a
39
db
ce
17
35
d1
55
2d
a0
de
01
a0
b2
46
65
75
f2
c5
d7
ee
40
83
b4
c0
e3
74
ed
e7
f8
fe
7b
68
04
9b
1a
56
b7
8a
45
3b
6e
43
20
c6
e7
06
3b
2e
3f
2b
b3
ad
05
74
94
b2
e9
b0
5c
62
34
f0
40
86
e1
a3
4e
48
1e
e0
6d
7e
cc
e4
34
e5
c0
13
b0
0d
37
2e
77
d4
25
9c
5d
32
8e
35
b2
e1
8f
df
da
39
a3
fb
27
19
12
b2
66
9b
b6
d0
e5
ae
db
f4
75
b9
99
7b
f8
cd
b4
a0
03
6c
53
36
d3
3b
10
03
44
8d
9f
ca
11
28
0e
62
03
04
ef
8b
6b
0d
16
6b
04
d3
37
48
b5
dd
2b
25
1a
31
f2
b1
09
3c
1c
1a
80
4b
49
be
e9
07
6d
37
d2
f1
6c
db
71
5e
45
98
c9
8c
ad
5a
82
44
5b
b3
ee
28
b3
ee
e6
bc
19
f8
b5
14
1d
ff
56
e4
1a
46
f5
46
60
6a
25
67
d7
48
54
6a
26
b2
b8
0b
20
48
78
0f
f6
48
05
e8
23
a0
7b
5f
03
6e
23
49
05
5d
6c
62
57
0d
90
40
8a
89
d5
68
4c
f6
8d
e3
b0
80
48
6d
bc
0a
c2
56
04
02
6a
f3
2c
09
51
b0
f5
c8
57
57
73
36
10
a7
49
e4
ab
6a
c4
b8
b3
6b
e4
a5
c5
f1
2b
5f
18
39
69
85
fd
fc
df
90
23
00
bc
2d
fb
a3
5d
0b
33
5b
40
33
2c
c8
b9
19
d3
a5
be
bd
58
55
da
c5
7e
68
fd
a6
b3
e2
57
8e
be
73
62
2c
98
68
0d
f6
b6
ab
47
34
63
46
44
19
eb
02
39
de
87
b3
02
e6
57
5a
30
50
3c
fe
4c
8d
d4
a0
09
e6
e3
df
b3
2c
50
4e
58
e7
66
a8
12
1a
26
82
73
e2
bf
de
20
f2
c7
16
ec
a6
a7
de
d2
71
8a
d4
ca
41
8b
4a
18
57
70
43
ef
5f
bd
e2
ac
02
e3
99
c6
47
ae
25
dc
99
aa
91
0e
05
48
34
c2
9f
0c
13
19
ea
30
49
d2
78
40
79
43
20
9c
7f
65
f0
f2
58
8a
00
26
fc
91
b5
5c
0b
67
4c
98
ab
44
e3
49
1d
54
a2
8c
4f
df
c1
82
61
d9
a5
6c
8c
6e
7b
88
51
31
ae
4a
55
82
31
21
a0
01
3c
76
ad
05
80
62
20
de
c9
bd
f8
80
c0
80
cf
5e
9b
94
77
e3
54
4e
8f
f1
28
84
1b
fd
f8
32
51
3c
1d
86
35
28
c8
cf
01
11
29
4a
a9
a2
01
7b
83
77
90
67
dd
af
cc
e5
2f
52
2d
d3
31
b1
38
94
fb
e6
fa
1a
fe
2f
f8
da
2a
db
de
3c
e3
af
fb
85
dc
f3
8c
d5
be
e8
f0
5e
3b
f3
e7
7d
d8
5d
5f
f9
2d
7b
65
47
c9
72
7a
c5
61
04
ae
16
65
76
68
48
09
cc
b1
da
84
98
ff
d0
54
f2
3e
c4
69
06
00
ea
ff
ee
5a
ef
ef
7c
7a
b4
f9
a9
ff
bd
79
8b
47
ff
ca
b4
0e
2b
90
35
5e
94
a6
e1
d1
f1
28
5a
8e
a2
c7
